{"<|endoftext|>":0,"<|im_start|>":1,"<|im_end|>":2,"<|mask|>":3,"!":4,"\"":5,"#":6,"$":7,"%":8,"&":9,"'":10,"(":11,")":12,"*":13,"+":14,",":15,"-":16,".":17,"/":18,"0":19,"1":20,"2":21,"3":22,"4":23,"5":24,"6":25,"7":26,"8":27,"9":28,":":29,";":30,"<":31,"=":32,">":33,"?":34,"@":35,"A":36,"B":37,"C":38,"D":39,"E":40,"F":41,"G":42,"H":43,"I":44,"J":45,"K":46,"L":47,"M":48,"N":49,"O":50,"P":51,"Q":52,"R":53,"S":54,"T":55,"U":56,"V":57,"W":58,"X":59,"Y":60,"Z":61,"[":62,"\\":63,"]":64,"^":65,"_":66,"`":67,"a":68,"b":69,"c":70,"d":71,"e":72,"f":73,"g":74,"h":75,"i":76,"j":77,"k":78,"l":79,"m":80,"n":81,"o":82,"p":83,"q":84,"r":85,"s":86,"t":87,"u":88,"v":89,"w":90,"x":91,"y":92,"z":93,"{":94,"|":95,"}":96,"~":97,"¡":98,"¢":99,"£":100,"¤":101,"¥":102,"¦":103,"§":104,"¨":105,"©":106,"ª":107,"«":108,"¬":109,"®":110,"¯":111,"°":112,"±":113,"²":114,"³":115,"´":116,"µ":117,"¶":118,"·":119,"¸":120,"¹":121,"º":122,"»":123,"¼":124,"½":125,"¾":126,"¿":127,"À":128,"Á":129,"Â":130,"Ã":131,"Ä":132,"Å":133,"Æ":134,"Ç":135,"È":136,"É":137,"Ê":138,"Ë":139,"Ì":140,"Í":141,"Î":142,"Ï":143,"Ð":144,"Ñ":145,"Ò":146,"Ó":147,"Ô":148,"Õ":149,"Ö":150,"×":151,"Ø":152,"Ù":153,"Ú":154,"Û":155,"Ü":156,"Ý":157,"Þ":158,"ß":159,"à":160,"á":161,"â":162,"ã":163,"ä":164,"å":165,"æ":166,"ç":167,"è":168,"é":169,"ê":170,"ë":171,"ì":172,"í":173,"î":174,"ï":175,"ð":176,"ñ":177,"ò":178,"ó":179,"ô":180,"õ":181,"ö":182,"÷":183,"ø":184,"ù":185,"ú":186,"û":187,"ü":188,"ý":189,"þ":190,"ÿ":191,"Ā":192,"ā":193,"Ă":194,"ă":195,"Ą":196,"ą":197,"Ć":198,"ć":199,"Ĉ":200,"ĉ":201,"Ċ":202,"ċ":203,"Č":204,"č":205,"Ď":206,"ď":207,"Đ":208,"đ":209,"Ē":210,"ē":211,"Ĕ":212,"ĕ":213,"Ė":214,"ė":215,"Ę":216,"ę":217,"Ě":218,"ě":219,"Ĝ":220,"ĝ":221,"Ğ":222,"ğ":223,"Ġ":224,"ġ":225,"Ģ":226,"ģ":227,"Ĥ":228,"ĥ":229,"Ħ":230,"ħ":231,"Ĩ":232,"ĩ":233,"Ī":234,"ī":235,"Ĭ":236,"ĭ":237,"Į":238,"į":239,"İ":240,"ı":241,"Ĳ":242,"ĳ":243,"Ĵ":244,"ĵ":245,"Ķ":246,"ķ":247,"ĸ":248,"Ĺ":249,"ĺ":250,"Ļ":251,"ļ":252,"Ľ":253,"ľ":254,"Ŀ":255,"ŀ":256,"Ł":257,"ł":258,"Ń":259,"ä¸":260,"ï¼":261,"çļ":262,"çļĦ":263,"ï¼Į":264,"ãĢ":265,"ãĢĤ":266,"äº":267,"ä»":268,"åı":269,"æľ":270,"è¿":271,"æĪ":272,"åħ":273,"ä½":274,"æĺ":275,"å¤":276,"im":277,"|>":278,"<|":279,"è¯":280,"ä¸Ģ":281,"æĸ":282,"å®":283,"çĶ":284,"åĪ":285,"åĴ":286,"åľ":287,"åĴĮ":288,"åĲ":289,"åĬ":290,"ç»":291,"ä¹":292,"æĺ¯":293,"å°":294,"åŃ":295,"ä¸ª":296,"ä»¥":297,"è®":298,"ãĢģ":299,"æĪĳ":300,"åľ¨":301,"äºº":302,"ĥ½":303,"ar":304,"en":305,"st":306,"art":307,"end":308,"start":309,"æľī":310,"ï¼ļ":311,"æĹ":312,"äºĨ":313,"åı¯":314,"è¿Ļ":315,"åĽ":316,"æĿ":317,"åº":318,"éĩ":319,"å¹":320,"å¸":321,"ä¸Ń":322,"ä¼":323,"éĢ":324,"è¡":325,"èĥ½":326,"çļĦæ":327,"åĩ":328,"ãĢĤ<|":329,"å·":330,"æĸĩ":331,"åĮ":332,"è¦":333,"è¦ģ":334,"é¢":335,"å¯":336,"å¾":337,"åĨ":338,"ä¸º":339,"è§":340,"å¥":341,"çī":342,"ç§":343,"ä»¬":344,"éĹ":345,"çİ":346,"å¼":347,"ä¸į":348,"çĶ¨":349,"æķ":350,"èĢ":351,"å½":352,"æĢ":353,"æŀ":354,"çĶŁ":355,"çŃ":356,"æı":357,"æī":358,"æŃ":359,"åı¯ä»¥":360,"éĿ":361,"åį":362,"Ġ<|":363,"ä¿":364,"æĬ":365,"æł":366,"æ³":367,"çĽ":368,"âĢ":369,"æĿ¥":370,"èĩ":371,"æĦ":372,"åĵ":373,"å¦":374,"ä¸ĭ":375,"çĲ":376,"ä¸Ģä¸ª":377,"æĪĲ":378,"åİ":379,"æĥ":380,"æıĲ":381,"æ°":382,"åĪ°":383,"ä»ĸ":384,"æĽ":385,"åŃ¦":386,"æĻ":387,"å¦Ĥ":388,"è¡Į":389,"åĩº":390,"åĳ":391,"å¿":392,"æĹ¶":393,"å¯¹":394,"æĭ":395,"ä½ł":396,"åŃĲ":397,"ä¾":398,"äºİ":399,"æİ":400,"åľ°":401,"é¢ĺ":402,"ä¸Ĭ":403,"ç«":404,"æĶ":405,"è´":406,"å°ı":407,"å¥½":408,"ä¼ļ":409,"çŃī":410,"æĸ¹":411,"æľ¬":412,"èĩª":413,"åĪĨ":414,"æĽ´":415,"äºĽ":416,"å¤ļ":417,"æµ":418,"æ¯":419,"èµ":420,"å¤§":421,"å±":422,"æį":423,"ï¼Ł":424,"åĬ¨":425,"ä½ľ":426,"å·¥":427,"çī©":428,"çº":429,"åħ³":430,"è¾":431,"å¹¶":432,"åıĳ":433,"ç®":434,"æĮ":435,"ç±":436,"é£":437,"éľ":438,"æĪĳä»¬":439,"éĿ¢":440,"æ´":441,"å®ļ":442,"æľĢ":443,"åħ¶":444,"æŀľ":445,"åŁ":446,"æ¬":447,"ç§į":448,"çİ°":449,"çļĦç":450,"è¿Ľ":451,"æ³ķ":452,"éĻ":453,"è¿ĩ":454,"æĤ":455,"éĹ®":456,"åģ":457,"æ¸":458,"ä½ĵ":459,"èī":460,"å¤©":461,"å®ĥ":462,"æį®":463,"ç»Ļ":464,"åĬĽ":465,"çĲĨ":466,"æĺİ":467,"éľĢ":468,"æ²":469,"å°Ĩ":470,"åºĶ":471,"åĬł":472,"ç±»":473,"æĸ°":474,"éģ":475,"çĤ":476,"åĮĸ":477,"æĢ§":478,"çĦ":479,"é«":480,"åĲĮ":481,"æĪĸ":482,"ä½¿":483,"åĽł":484,"ä¿Ŀ":485,"å¸¸":486,"éĩį":487,"çľ":488,"é«ĺ":489,"åı¥":490,"è½":491,"æĦŁ":492,"å®¶":493,"ä¹Ł":494,"æľº":495,"å½±":496,"è¶":497,"æ±":498,"ä¸»":499,"éĶ":500,"éĺ":501,"è¯Ń":502,"çĦ¶":503,"ç«ł":504,"å¾Ĺ":505,"âĢĿ":506,"æķ°":507,"æĸĩç«ł":508,"éĢļ":509,"åĵģ":510,"âĢľ":511,"ç³":512,"éľĢè¦ģ":513,"çĶµ":514,"æĬĢ":515,"æĻº":516,"è°":517,"è§£":518,"æĸĩæľ¬":519,"ä¹ĭ":520,"ä¹Ī":521,"æĥħ":522,"æĤ¨":523,"éĹ®é¢ĺ":524,"åº¦":525,"çŁ":526,"èĢĮ":527,"åī":528,"æģ":529,"è¡¨":530,"ç»ı":531,"æĻºèĥ½":532,"è¯·":533,"çĿ":534,"å¾Ī":535,"éĹ´":536,"æŃ¤":537,"èĬ":538,"åĸ":539,"ç¾":540,"åħ¬":541,"å¢":542,"éĩı":543,"åĽ½":544,"ç©":545,"çĤ¹":546,"æľ¯":547,"ç¤":548,"èī²":549,"èĤ":550,"èĢħ":551,"è¯į":552,"å¹´":553,"å®ŀ":554,"æ°Ķ":555,"å»":556,"åĢ":557,"åıĸ":558,"ä¿¡":559,"è¿Ļä¸ª":560,"ä¹ł":561,"åĲį":562,"ç¨":563,"å¿ĥ":564,"ä½Ĩ":565,"åĲĪ":566,"æĦı":567,"è¯¥":568,"ä¸ļ":569,"ä¾Ľ":570,"çĸ":571,"è®¡":572,"åĲİ":573,"ç¡":574,"éĤ":575,"äºĭ":576,"æīĢ":577,"ä»¥ä¸ĭ":578,"ä»İ":579,"è¿ĺ":580,"å»º":581,"æ®":582,"çĽ¸":583,"çĿĢ":584,"çĲĥ":585,"ä¸ĢäºĽ":586,"éĥ½":587,"åĮħ":588,"æıĲä¾Ľ":589,"æ´»":590,"ä¸İ":591,"ç¾İ":592,"æł¹":593,"è¿Ľè¡Į":594,"æŁ":595,"åı¥åŃĲ":596,"ç½":597,"å¼ı":598,"é£Ł":599,"åħ¥":600,"å±ķ":601,"åħ¨":602,"éĩĮ":603,"è¿°":604,"äººå·¥":605,"å¤ĸ":606,"çİ¯":607,"é¡":608,"çķ":609,"çī¹":610,"ä½¿çĶ¨":611,"æĥ³":612,"ç´":613,"éĿŀ":614,"èĲ":615,"é¦":616,"äººå·¥æĻºèĥ½":617,"ç¯":618,"åĨħ":619,"æŃ£":620,"æ¡":621,"è¢":622,"éļ":623,"å½ĵ":624,"å¼Ģ":625,"åİ»":626,"éķ":627,"æģ¯":628,"æł¹æį®":629,"æ°´":630,"æ·":631,"æ¯Ķ":632,"åıĺ":633,"åĨĻ":634,"æ®µ":635,"æĺ¯ä¸Ģ":636,"åŀ":637,"éĥ":638,"ç³»":639,"è·":640,"åĬ©":641,"èģ":642,"è¯´":643,"åŃ¦ä¹ł":644,"ç¨ĭ":645,"åĪ¶":646,"åħ·":647,"ç¡®":648,"å¸Ĥ":649,"è®©":650,"ä»Ģ":651,"éĽ":652,"æĮģ":653,"éģĵ":654,"åĿ":655,"çľĭ":656,"ç¯ĩ":657,"ç¼":658,"äº§":659,"èµ·":660,"çĥ":661,"ç»ĵ":662,"åķ":663,"ä»Ģä¹Ī":664,"æĬĢæľ¯":665,"å¸®":666,"èº":667,"åıĬ":668,"è¯Ŀ":669,"éĥ¨":670,"çĽ®":671,"éĤ£":672,"èĭ":673,"ç¬":674,"ä½ķ":675,"éķ¿":676,"éĿŀå¸¸":677,"èį":678,"åĬ¡":679,"ç®Ĺ":680,"æ¯ı":681,"èº«":682,"çĭ":683,"è¢«":684,"åģ¥":685,"ç§ĳ":686,"æĹ¥":687,"å°ĳ":688,"å·±":689,"åīį":690,"åĻ":691,"æĭ¬":692,"éħ":693,"éĢĤ":694,"åĸľ":695,"èĩªå·±":696,"åľº":697,"å®¹":698,"åıĹ":699,"åı¯èĥ½":700,"æĹł":701,"åĽŀ":702,"æ¬¢":703,"ä¿¡æģ¯":704,"éĢī":705,"ä»ĸä»¬":706,"åĻ¨":707,"åĮ»":708,"äº¤":709,"å¥½çļĦ":710,"ä»£":711,"åŀĭ":712,"é¢Ĩ":713,"åĪ«":714,"èĻ":715,"çł":716,"å¤Ħ":717,"çĶµå½±":718,"çŃĶ":719,"è¨":720,"é¥":721,"çĪ":722,"éª":723,"æ¶":724,"ä½į":725,"åĪ©":726,"è´¨":727,"æ»":728,"è®®":729,"é£İ":730,"å¢ĥ":731,"å¹³":732,"ä¸¤":733,"æ¡Ī":734,"æīĭ":735,"çĹ":736,"å§":737,"ä¾ĭ":738,"è¿ĻäºĽ":739,"éĩįè¦ģ":740,"éĢļè¿ĩ":741,"å¦Ĥæŀľ":742,"ä¸ŃçļĦ":743,"éŁ":744,"ä»»":745,"åĵį":746,"ä»¶":747,"çĶŁæĪĲ":748,"åĮħæĭ¬":749,"è®º":750,"åŃĹ":751,"åı¸":752,"åŁŁ":753,"åıĳå±ķ":754,"è¨Ģ":755,"çĻ":756,"åºĶçĶ¨":757,"å°ıæĺİ":758,"å°±":759,"æłĩ":760,"ç®Ģ":761,"æ±Ĥ":762,"æ²¡":763,"åĪĽ":764,"åįķ":765,"åĨ³":766,"è§Ĥ":767,"æĶ¹":768,"æĶ¾":769,"æİ¨":770,"æ¸¸":771,"èĪ":772,"çģ":773,"åıª":774,"æľª":775,"è®¾":776,"å½±åĵį":777,"çŁ¥":778,"åº·":779,"ç»Ł":780,"æĹ¶éĹ´":781,"ä¸ī":782,"æĢ»":783,"å¸®åĬ©":784,"ç¥":785,"æľŁ":786,"é»":787,"å£":788,"åĸľæ¬¢":789,"æº":790,"ä¹Ĳ":791,"èĬĤ":792,"åħ¬åı¸":793,"æıı":794,"æķĪ":795,"è¯Ĩ":796,"åģ¥åº·":797,"æµ·":798,"æ¨":799,"å¼º":800,"å¤Ł":801,"èĥ":802,"ç»Ļå®ļ":803,"ç¤¾":804,"æĸŃ":805,"åĩı":806,"äººç±»":807,"æĳ":808,"æ³¨":809,"æŀģ":810,"å®ī":811,"é¢ĨåŁŁ":812,"çĶŁæ´»":813,"æ¼":814,"æľį":815,"è¾¾":816,"æ·±":817,"çĶ±":818,"æł·":819,"çĸĹ":820,"åĽłæŃ¤":821,"çİ¯å¢ĥ":822,"ä¸įåĲĮ":823,"æŃ¥":824,"å·¥ä½ľ":825,"æĺŁ":826,"è±":827,"èĦ":828,"é©":829,"éŁ³":830,"å¤ª":831,"æķ°æį®":832,"æµģ":833,"å½¢":834,"åİŁ":835,"åģļ":836,"ä¸ĸ":837,"å·²":838,"èİ":839,"æıĲåıĸ":840,"æĻ¯":841,"è½¦":842,"åıĭ":843,"æııè¿°":844,"æ²¡æľī":845,"å¸¦":846,"æĪ·":847,"åĽłä¸º":848,"å¯¼":849,"è¿Ĳ":850,"æ¬¡":851,"åĳĺ":852,"çĮ":853,"ç²":854,"éĴ":855,"èı":856,"å»ºè®®":857,"æ¨¡":858,"æĸĻ":859,"éĶ®":860,"æıĲé«ĺ":861,"è¯ķ":862,"èĩªçĦ¶":863,"å®ĥä»¬":864,"æī¾":865,"ãĢĭ":866,"åŁº":867,"ãĢĬ":868,"å¦Ĥä½ķ":869,"è®¤":870,"åİĨ":871,"ä¹ī":872,"åŁİ":873,"æĽ´åĬł":874,"å¥¹":875,"ä¼ł":876,"æºĲ":877,"ä¸»è¦ģ":878,"åĲĦ":879,"åħ³éĶ®":880,"ç¤º":881,"æĬ¤":882,"æĭ©":883,"æĮĩ":884,"åºĶè¯¥":885,"åĲĳ":886,"éĢł":887,"æł¼":888,"ç»Ħ":889,"éĢīæĭ©":890,"çķĮ":891,"åħī":892,"çļĦæķ":893,"æĸ¹å¼ı":894,"æĹħ":895,"åĲĮæĹ¶":896,"è¿ĳ":897,"èĥ½å¤Ł":898,"ç¯ĩæĸĩç«ł":899,"èĲ½":900,"ç©¶":901,"è£":902,"åĨħå®¹":903,"è°ĥ":904,"äººä»¬":905,"åı£":906,"çĪ±":907,"ï¼Ľ":908,"è¯Ńè¨Ģ":909,"è§Ĩ":910,"åĳ³":911,"ç©º":912,"çº¢":913,"åĮº":914,"èĢĥ":915,"ä»·":916,"åĲĹ":917,"åħ³äºİ":918,"çĬ":919,"ç½ĳ":920,"èĬ±":921,"åĳĬ":922,"æĺ¯ä¸Ģä¸ª":923,"ä¾ĭå¦Ĥ":924,"æľªæĿ¥":925,"çĹħ":926,"é¤":927,"è®¡ç®Ĺ":928,"å¿«":929,"å¹¿":930,"æľºåĻ¨":931,"ç®¡":932,"æĸ¹æ³ķ":933,"æĸ¹éĿ¢":934,"é¢Ħ":935,"å¢ŀ":936,"ï¼ī":937,"åķĨ":938,"éªĮ":939,"é¤Ĳ":940,"æĢĿ":941,"Ķç©¶":942,"ç¦":943,"ä¹¦":944,"ä¸Ķ":945,"åĩĨ":946,"å®Į":947,"åĩł":948,"é¦ĸ":949,"éĵ":950,"å®¢":951,"éĶĻ":952,"åĪ°äºĨ":953,"é¡¹":954,"åħ¶ä»ĸ":955,"ä¼ĺ":956,"è¶Ĭ":957,"ä»¥åıĬ":958,"ä¸»é¢ĺ":959,"é¸":960,"å¼ķ":961,"éĩĳ":962,"è®¸":963,"è¯Ħ":964,"æļ":965,"æ¸ħ":966,"åħĪ":967,"ç´ł":968,"åĬŁ":969,"æ£":970,"å¤ĩ":971,"è½»":972,"æİ¥":973,"è§ī":974,"åĪĹ":975,"ï¼Ī":976,"è¯»":977,"èµĦ":978,"æĪĺ":979,"èĮ":980,"åĪĨç±»":981,"å§ĭ":982,"ä»Ĭ":983,"ä¸ªäºº":984,"éĺ³":985,"çŁŃ":986,"èĩ´":987,"åŃĺ":988,"åĵª":989,"æµĭ":990,"æķĻ":991,"æĢģ":992,"æ¸©":993,"ç»Ń":994,"åĢĻ":995,"ï¼ģ":996,"æľĭ":997,"æŀĲ":998,"ç¼ĸ":999,"ä¸ĸçķĮ":1000,"åħ±":1001,"ä½Ĩæĺ¯":1002,"åĲ«":1003,"æľĪ":1004,"èıľ":1005,"æľĭåıĭ":1006,"çº¦":1007,"åħĭ":1008,"ç§¯":1009,"ç«ĭ":1010,"çİĩ":1011,"åĽŀçŃĶ":1012,"æĸĩåĮĸ":1013,"åĪĨæŀĲ":1014,"å¤ĦçĲĨ":1015,"åı²":1016,"ç»Ĩ":1017,"çļĦæĥ":1018,"ä¸Ģä¸ĭ":1019,"æĶ¯":1020,"åĩıå°ĳ":1021,"åŁİå¸Ĥ":1022,"è±¡":1023,"å±±":1024,"ä¹ĭä¸Ģ":1025,"è¶³":1026,"è¿Ļç¯ĩæĸĩç«ł":1027,"ä¸ŃåĽ½":1028,"æķ´":1029,"åĲ¦":1030,"å¤į":1031,"ç¬¬":1032,"åĪĻ":1033,"æ»¡":1034,"åĨµ":1035,"ä¿ĿæĬ¤":1036,"çłĶç©¶":1037,"ĺè¦ģ":1038,"èĳ":1039,"åħĥ":1040,"è§Ĵ":1041,"ç¥ŀ":1042,"é¥®":1043,"20":1044,"å·²ç»ı":1045,"åĥ":1046,"æľĽ":1047,"è®¸å¤ļ":1048,"æİ¢":1049,"äºĨä¸Ģ":1050,"èĩªå·±çļĦ":1051,"ä¸¤ä¸ª":1052,"ç³ĸ":1053,"éĩĩ":1054,"åıį":1055,"ç¿":1056,"è°¢":1057,"èĢģ":1058,"äº§åĵģ":1059,"çº¿":1060,"åĪĴ":1061,"è¾ĵ":1062,"çľŁ":1063,"åĮ»çĸĹ":1064,"æŃ¤å¤ĸ":1065,"çĭĹ":1066,"ç³»ç»Ł":1067,"æĽ´å¤ļ":1068,"è§Ħ":1069,"å°½":1070,"éĢŁ":1071,"åĶ":1072,"çħ":1073,"è¶£":1074,"è·¯":1075,"éĻ©":1076,"å¥³":1077,"åıĤ":1078,"çļĦäºº":1079,"èģĶ":1080,"åĲĥ":1081,"ä¿ĿæĮģ":1082,"ä»½":1083,"æĸ¯":1084,"è¥":1085,"åħ¨çĲĥ":1086,"æĺ¯ä¸Ģç§į":1087,"æĬ¥":1088,"æĺĵ":1089,"çĽ´":1090,"åĬ¨çī©":1091,"Â·":1092,"æľįåĬ¡":1093,"çĻ½":1094,"å¤´":1095,"åĢ¼":1096,"è¥¿":1097,"æĸ½":1098,"è§£åĨ³":1099,"æİĴ":1100,"æĪĲä¸º":1101,"ħäºĭ":1102,"åĨį":1103,"åĥı":1104,"çĥŃ":1105,"çİ¯ä¿Ŀ":1106,"ä»ĭ":1107,"åĽ¾":1108,"æ´»åĬ¨":1109,"å²":1110,"éļ¾":1111,"ä¹°":1112,"ä¾¿":1113,"åĳ¨":1114,"çļĦä¸Ģ":1115,"æŁ¥":1116,"æĪĸèĢħ":1117,"èİ·":1118,"è¾ĥ":1119,"èĻĳ":1120,"æŀĦ":1121,"æĿ¡":1122,"ç¤¾ä¼ļ":1123,"å®īåħ¨":1124,"10":1125,"è¿ĲåĬ¨":1126,"è§ģ":1127,"çīĩ":1128,"åĲ¬":1129,"èº«ä½ĵ":1130,"ç»ĻæĪĳ":1131,"è¯Ĺ":1132,"åıĳçİ°":1133,"èĩ³":1134,"æĲ":1135,"çļĦæĥħ":1136,"æ¼Ķ":1137,"éħį":1138,"éļı":1139,"åıĺåĮĸ":1140,"çİ°åľ¨":1141,"ãĢĤâĢĿ":1142,"æīĵ":1143,"ç§ĳæĬĢ":1144,"åħ¶ä¸Ń":1145,"ç»ĥ":1146,"åºı":1147,"æĶ¶":1148,"çĬ¶":1149,"è®¤ä¸º":1150,"å¼ł":1151,"èĤ²":1152,"å¤©æ°Ķ":1153,"ä¸½":1154,"ç´¢":1155,"éĤ£ä¹Ī":1156,"æĪĳä»¬çļĦ":1157,"åĳ½":1158,"ä¹ĭéĹ´":1159,"äº«":1160,"æĬĬ":1161,"ç²¾":1162,"è®°":1163,"æ¶Ī":1164,"¹æŀľ":1165,"æħ":1166,"åħħ":1167,"èĥ½åĬĽ":1168,"çĽ¸åħ³":1169,"èĭ¹æŀľ":1170,"äºĮ":1171,"ä½łçļĦ":1172,"åİĨåı²":1173,"æĶ¿":1174,"åĲ¸":1175,"å¾Īå¤ļ":1176,"åı¤":1177,"çŃĸ":1178,"å¡":1179,"å¸¦æĿ¥":1180,"çı":1181,"æ¤":1182,"æĳĺè¦ģ":1183,"åĽŃ":1184,"åħ·æľī":1185,"è´Ń":1186,"ç¢":1187,"åħ´":1188,"éĺŁ":1189,"å¸Ī":1190,"ä½İ":1191,"çĮ«":1192,"å¤±":1193,"éĹ¨":1194,"æ¬¾":1195,"ç»´":1196,"æ²»":1197,"åį³":1198,"ç»Ļå®ļçļĦ":1199,"éĹ»":1200,"ç§ĳåŃ¦":1201,"ç§°":1202,"å¸ĥ":1203,"æ¢":1204,"çĭ¬":1205,"åħį":1206,"æŃĮ":1207,"è¯ī":1208,"éĩĬ":1209,"äºĴ":1210,"èįĲ":1211,"åĭ":1212,"éŁ³ä¹Ĳ":1213,"ç»Ļåĩº":1214,"å°Ŀ":1215,"çļĦæĦ":1216,"¦Ĥ":1217,"çŃĶæ¡Ī":1218,"æīį":1219,"æĿĲ":1220,"è¿Ļç§į":1221,"è®¾è®¡":1222,"ç§¯æŀģ":1223,"ç»į":1224,"å¼Ģå§ĭ":1225,"ä»»åĬ¡":1226,"èĲ¥":1227,"æĿ¾":1228,"äºĨè§£":1229,"éĽĨ":1230,"è¡¨è¾¾":1231,"ä»ĭç»į":1232,"ä¸ŃæıĲåıĸ":1233,"åı¥è¯Ŀ":1234,"çļĦå½±åĵį":1235,"å¯¼èĩ´":1236,"å¯Į":1237,"è¯¯":1238,"åŃ£":1239,"å¿ħ":1240,"å¨":1241,"èĽ":1242,"å¯¹äºİ":1243,"æ¨¡åŀĭ":1244,"åħ·ä½ĵ":1245,"è®¡ç®Ĺæľº":1246,"èĭ±":1247,"çĶ·":1248,"æĥħæĦŁ":1249,"æľºåĻ¨åŃ¦ä¹ł":1250,"çĲĨè§£":1251,"æİ¨èįĲ":1252,"çļĦæĬ":1253,"è½¬":1254,"å®ŀçİ°":1255,"æľĢè¿ĳ":1256,"æĸ°çļĦ":1257,"æĺ¯åĲ¦":1258,"éĢļå¸¸":1259,"åı·":1260,"åįĩ":1261,"åİĭ":1262,"è®¨":1263,"é¦Ļ":1264,"éĻ¤":1265,"èµĽ":1266,"è®²":1267,"åĬ¿":1268,"ä¸ĵ":1269,"ä»Ĭå¤©":1270,"æĽ´å¥½":1271,"èĤī":1272,"é²":1273,"åĮĹ":1274,"ä¸įæĸŃ":1275,"åĲĦç§į":1276,"ä¿®":1277,"æĿİ":1278,"è´¹":1279,"é»ĳ":1280,"éĶĢ":1281,"æ°ĳ":1282,"åľ°çĲĥ":1283,"è®¡åĪĴ":1284,"å¸Ĥåľº":1285,"è£ħ":1286,"åįİ":1287,"æĪı":1288,"åįģ":1289,"åħ³éĶ®è¯į":1290,"åĳĬè¯ī":1291,"è¯ģ":1292,"æŁĵ":1293,"åħ»":1294,"çļĦéĹ®é¢ĺ":1295,"æīĢæľī":1296,"ä¸Ģæ®µ":1297,"é©¬":1298,"èħ":1299,"åĸĦ":1300,"åĽ´":1301,"æīĢä»¥":1302,"çĶ¨æĪ·":1303,"æ³¨æĦı":1304,"èīº":1305,"æĻļ":1306,"ç»Ī":1307,"æĪĳçļĦ":1308,"åįķè¯į":1309,"å¯»":1310,"è¯ĨåĪ«":1311,"éĢĤåĲĪ":1312,"å¤ı":1313,"ä¸Ģèµ·":1314,"æİ§":1315,"ç¦»":1316,"å¸Į":1317,"æŃ£åľ¨":1318,"çª":1319,"AI":1320,"æĪĳä»¬åı¯ä»¥":1321,"èĳĹ":1322,"å¾ĭ":1323,"éĻħ":1324,"éĺ²":1325,"æĸ°éĹ»":1326,"æ¯Ķå¦Ĥ":1327,"è¶ħ":1328,"ä»ĸçļĦ":1329,"åĽĽ":1330,"è¿ľ":1331,"å¤ªéĺ³":1332,"åŃ©":1333,"è¦ģæ±Ĥ":1334,"çŁ¥éģĵ":1335,"çļĦæĺ¯":1336,"æĹłæ³ķ":1337,"å°Ķ":1338,"å¹¶ä¸Ķ":1339,"ä¸Ģç§į":1340,"å·§":1341,"æĦŁåĪ°":1342,"æŀĹ":1343,"æ³Ľ":1344,"å£°":1345,"æĴ":1346,"èµ°":1347,"åĳ¢":1348,"åħ³ç³»":1349,"æŁĲ":1350,"å°ıè¯´":1351,"çĦ¶åĲİ":1352,"åı¦":1353,"ä»ħ":1354,"ï¼ļâĢľ":1355,"è´Ł":1356,"æĹħæ¸¸":1357,"è¿ĩç¨ĭ":1358,"åįĹ":1359,"æ¯ıä¸ª":1360,"å£«":1361,"ç½®":1362,"åŃĺåľ¨":1363,"æĢ»ç»ĵ":1364,"å¤§çļĦ":1365,"åİħ":1366,"èģĮ":1367,"è§£éĩĬ":1368,"èĢĥèĻĳ":1369,"å¾·":1370,"æĪĲåĬŁ":1371,"æĭī":1372,"è´¨éĩı":1373,"è¾¹":1374,"æĹ©":1375,"çļĦæ°":1376,"ç®¡çĲĨ":1377,"éĻį":1378,"èĽĭ":1379,"çļĦæĢ":1380,"åŃ¦çĶŁ":1381,"æĺ¾":1382,"ĳæĪĺ":1383,"åĦ":1384,"æĪ¿":1385,"çŃīçŃī":1386,"èŀ":1387,"ªæĸ½":1388,"æ®µèĲ½":1389,"è¡Įä¸º":1390,"ç¾İåĽ½":1391,"ä¸ľ":1392,"æĪĳæĥ³":1393,"éĶĻè¯¯":1394,"åĮ»çĶŁ":1395,"å¢ŀåĬł":1396,"ä¸Ģç¯ĩ":1397,"è¾ĳ":1398,"çĨ":1399,"ä¼¼":1400,"å°Ŀè¯ķ":1401,"äºĶ":1402,"çħ§":1403,"å¯¹è¯Ŀ":1404,"å®ĮæĪĲ":1405,"æ¦Ĥ":1406,"å¯Ĩ":1407,"çİ©":1408,"æĺ¯ä»Ģä¹Ī":1409,"å¹¿æ³Ľ":1410,"ç±³":1411,"ä¸ĭéĿ¢":1412,"ä½ľä¸º":1413,"åĪ©çĶ¨":1414,"çĶ»":1415,"è¿Ļæ®µ":1416,"ä¸įåĲĮçļĦ":1417,"çģ«":1418,"èĩªåĬ¨":1419,"æľĢåĲİ":1420,"é¥®é£Ł":1421,"æĭ¥":1422,"æļĸ":1423,"çİĭ":1424,"éģ¿":1425,"åĴĸ":1426,"å½ĵçĦ¶":1427,"æ¿":1428,"é£Łçī©":1429,"è®Ń":1430,"çļĦåıĳå±ķ":1431,"å®³":1432,"å¾ĹåĪ°":1433,"æµİ":1434,"åı°":1435,"æĽ´å¥½åľ°":1436,"åĽ¢":1437,"ç¡®ä¿Ŀ":1438,"å¿µ":1439,"åı¯èĥ½ä¼ļ":1440,"çļĦåľ°":1441,"çļĦæķ°":1442,"ä¼ģ":1443,"çļĦä¿¡æģ¯":1444,"ãĢĤ\\":1445,"ä»»ä½ķ":1446,"æ°ĶåĢĻ":1447,"äºļ":1448,"ç®Ĺæ³ķ":1449,"åķ¡":1450,"èŀį":1451,"çļĦåºĶçĶ¨":1452,"äº¬":1453,"ä¸įæĺ¯":1454,"æłĩé¢ĺ":1455,"äº§çĶŁ":1456,"éĻĲ":1457,"æĤ¨çļĦ":1458,"åĴĸåķ¡":1459,"æĥħåĨµ":1460,"æ´ģ":1461,"æĵ":1462,"å®¤":1463,"å¸ĮæľĽ":1464,"æķħäºĭ":1465,"èįī":1466,"èİ·å¾Ĺ":1467,"æį¢":1468,"è¿ĺæľī":1469,"åł":1470,"éĽ¨":1471,"äººçļĦ":1472,"ç»ľ":1473,"äº¤éĢļ":1474,"æĢİ":1475,"å·´":1476,"è¾ĵåħ¥":1477,"çĽ®æłĩ":1478,"åĦ¿":1479,"ç»ıæµİ":1480,"è¿Ļæł·":1481,"çĶŁæĪĲä¸Ģä¸ª":1482,"å¹²":1483,"é»Ħ":1484,"è¡¨ç¤º":1485,"é¦ĸåħĪ":1486,"çĶ¨äºİ":1487,"åı¯ä»¥å¸®åĬ©":1488,"éħĴ":1489,"è¡£":1490,"é£ŀ":1491,"éĥ½æĺ¯":1492,"ç³ĸæŀľ":1493,"ä¼Ĺ":1494,"å¾ģ":1495,"æľīæķĪ":1496,"é¤Ĳåİħ":1497,"çļĦä¸»è¦ģ":1498,"ä½łåı¯ä»¥":1499,"éĺħ":1500,"åĮħåĲ«":1501,"çīĽ":1502,"çļĦæł":1503,"ç©¿":1504,"åºĹ":1505,"æĹħè¡Į":1506,"æī¾åĪ°":1507,"å¾Ģ":1508,"æķĻèĤ²":1509,"å±ŀ":1510,"åºŃ":1511,"ç»ĵæŀľ":1512,"ç®Ģåįķ":1513,"¡æŁĵ":1514,"éľĢæ±Ĥ":1515,"æ¸¸æĪı":1516,"æ¿Ģ":1517,"çļĦéĩįè¦ģ":1518,"éĥ¨åĪĨ":1519,"éº":1520,"åĳĬè¯īæĪĳ":1521,"ä½¿åħ¶":1522,"åĿĩ":1523,"éģ¿åħį":1524,"éĩĩåıĸ":1525,"æ©":1526,"å±ħ":1527,"æ½":1528,"è§ĤçĤ¹":1529,"åĩłä¸ª":1530,"æİªæĸ½":1531,"ç½ĳç»ľ":1532,"åĪ¶ä½ľ":1533,"çīĮ":1534,"åĩĨç¡®":1535,"ä¹Łæĺ¯":1536,"æľīåħ³":1537,"å¾®":1538,"ä»¤":1539,"äºī":1540,"æĮģç»Ń":1541,"æĶ¯æĮģ":1542,"èĥ½æºĲ":1543,"ä¸ĩ":1544,"ä½ĵéªĮ":1545,"åª":1546,"é±":1547,"èµ·æĿ¥":1548,"äºĨä¸Ģä¸ª":1549,"é±¼":1550,"ä½ľçĶ¨":1551,"åī§":1552,"ä¼ģä¸ļ":1553,"è¡¨çİ°":1554,"éĩįè¦ģçļĦ":1555,"ç«Ļ":1556,"ç»¿":1557,"ä¸įèĥ½":1558,"çĽĬ":1559,"é¼":1560,"çĳ":1561,"æłĳ":1562,"åıĳçĶŁ":1563,"ä»ĸä»¬çļĦ":1564,"ä¹Łåı¯ä»¥":1565,"00":1566,"èĵ":1567,"èī¯":1568,"éĺħè¯»":1569,"åĪĩ":1570,"å°ıçº¢":1571,"èĩªçĦ¶è¯Ńè¨Ģ":1572,"æ¤į":1573,"¾çĹħ":1574,"é¾":1575,"çĶ±äºİ":1576,"çİ°ä»£":1577,"ä¸īä¸ª":1578,"å¤ľ":1579,"åĵªäºĽ":1580,"åĪ¤":1581,"ç¤¾äº¤":1582,"å®Ŀ":1583,"å¾ħ":1584,"ç¬¦":1585,"æ²¹":1586,"æĭ¥æľī":1587,"åŁºäºİ":1588,"å¥¶":1589,"âĢĿï¼Į":1590,"æ¹":1591,"åĬłåħ¥":1592,"åħ³æ³¨":1593,"çº§":1594,"å¥ĩ":1595,"è¿ĺæĺ¯":1596,"èī²çļĦ":1597,"ç»ĩ":1598,"è¯Ĭ":1599,"æ±¡æŁĵ":1600,"åıĪ":1601,"å¦Ĥæŀľä½ł":1602,"é¢ľ":1603,"éģĩ":1604,"åĬª":1605,"ä¸¾":1606,"åºľ":1607,"åĿĹ":1608,"ï¼Ł<|":1609,"é¦Ĩ":1610,"åĩºçİ°":1611,"è¿ŀ":1612,"çļĦæĸĩç«ł":1613,"ä¸°":1614,"é¸¡":1615,"ç±»åŀĭ":1616,"ä»¥ä¸ĭåı¥åŃĲ":1617,"ç¡®å®ļ":1618,"åĪ»":1619,"å®¶åºŃ":1620,"æĮĳæĪĺ":1621,"æĺ¥":1622,"å®¢æĪ·":1623,"èµĦæºĲ":1624,"çļĦæİ":1625,"åĬªåĬĽ":1626,"åĶ®":1627,"è½¯":1628,"ç¿»":1629,"èĪĴ":1630,"èį¯":1631,"è®Ńç»ĥ":1632,"æİ§åĪ¶":1633,"èĻ½":1634,"æľīè¶£":1635,"éĿĻ":1636,"æĢ§åĴĮ":1637,"æķ£":1638,"è¿½":1639,"åĬŁèĥ½":1640,"è¿Ļæĺ¯":1641,"ä»İèĢĮ":1642,"èĦĳ":1643,"çļĦæĬĢ":1644,"æŃ£ç¡®":1645,"åıĹåĪ°":1646,"æĸ¹æ¡Ī":1647,"çļĦåı¥åŃĲ":1648,"çļĦæĻ":1649,"ä¸ºäºĨ":1650,"ç§ĭ":1651,"é¸Ł":1652,"æ£Ģ":1653,"ä¸¥":1654,"æĬķ":1655,"éŃ":1656,"èŃ":1657,"è§Ĵèī²":1658,"æ²»çĸĹ":1659,"æĤ¨åı¯ä»¥":1660,"åħ¸":1661,"çĸ¾çĹħ":1662,"é¢Ħæµĭ":1663,"èīºæľ¯":1664,"å±Ĥ":1665,"æ²Ļ":1666,"çļĦç¾":1667,"å½Ĵ":1668,"åİĭåĬĽ":1669,"ç¨ĭåºı":1670,"æ¯Ķè¾ĥ":1671,"æķĪçİĩ":1672,"æİ¢ç´¢":1673,"åģĩ":1674,"äºĳ":1675,"è¯¦":1676,"äººå·¥æĻºèĥ½æĬĢæľ¯":1677,"äºĭä»¶":1678,"èĮĥ":1679,"èĶ":1680,"ä¸ĬçļĦ":1681,"æĤ£":1682,"æĿ¯":1683,"è´Ńä¹°":1684,"ä¼łç»Ł":1685,"æĿĤ":1686,"çļĦæĦı":1687,"çŁ³":1688,"èĻ½çĦ¶":1689,"éĻ¢":1690,"æľĢç»Ī":1691,"éĨ":1692,"ä¸įä»ħ":1693,"æĿ¥è¶Ĭ":1694,"æ°ĶåĢĻåıĺåĮĸ":1695,"çĶŁçī©":1696,"çĶŁåĳ½":1697,"é²ľ":1698,"è¶ĬæĿ¥è¶Ĭ":1699,"æĮī":1700,"ç¦ı":1701,"çĶµåŃĲ":1702,"æīįèĥ½":1703,"æµª":1704,"æĪĳä»¬éľĢè¦ģ":1705,"éļıçĿĢ":1706,"é£İéĻ©":1707,"æ¥":1708,"å°±æĺ¯":1709,"æĽ²":1710,"ä¸Ģä»½":1711,"æ´ĭ":1712,"è¯Ħè®º":1713,"çķ¥":1714,"æ±½":1715,"åªĴ":1716,"çĥ¤":1717,"ä¸´":1718,"ç¼º":1719,"åĽ°":1720,"ä¸Ģä½į":1721,"åį¡":1722,"è·ĳ":1723,"æĿ¥è¯´":1724,"çĵ":1725,"èĥĮ":1726,"åı¶":1727,"åĨ°":1728,"æĢİä¹Ī":1729,"å»ºç«ĭ":1730,"ç¼ĸè¾ĳ":1731,"ä¸°å¯Į":1732,"åĪĽéĢł":1733,"æĶ¿åºľ":1734,"åİŁåĽł":1735,"æĻ®":1736,"å½©":1737,"ä»·åĢ¼":1738,"èĩªçĦ¶è¯Ńè¨Ģå¤ĦçĲĨ":1739,"è¯¦ç»Ĩ":1740,"æĿĥ":1741,"åĿļ":1742,"èĵĿ":1743,"æł¡":1744,"çļĦæī":1745,"æ°´æŀľ":1746,"æ¯ĶèµĽ":1747,"åĳ¼":1748,"æĽ´å¤ļçļĦ":1749,"çļĦç¾İ":1750,"åĽłç´ł":1751,"çĶŁæĢģ":1752,"è¡¨æĺİ":1753,"å¤ļå°ĳ":1754,"ä½ľèĢħ":1755,"è¯Ńæ³ķ":1756,"äº²":1757,"èľ":1758,"æĸĩæ¡Ī":1759,"æĹ¶åĢĻ":1760,"ä¹ĭéĹ´çļĦ":1761,"è¯ĬæĸŃ":1762,"ç¬Ķ":1763,"æĶ¹åıĺ":1764,"æĹı":1765,"ç»Ħç»ĩ":1766,"åħ¬åĽŃ":1767,"åĩĨå¤ĩ":1768,"ä»¥ä¸ĭæĸĩæľ¬":1769,"è¿ĺåı¯ä»¥":1770,"åĬŀ":1771,"å³":1772,"èĴ":1773,"æľºä¼ļ":1774,"é¢ĺçĽ®":1775,"è¯·éĹ®":1776,"ä½ı":1777,"ä¿ĥ":1778,"é¢Ĺ":1779,"çļĦæĥħæĦŁ":1780,"çªģ":1781,"æĿĲæĸĻ":1782,"çĶŁäº§":1783,"çĽĳ":1784,"ç¼ĵ":1785,"éĴŁ":1786,"åĲįç§°":1787,"è¿İ":1788,"é£İæł¼":1789,"ç»ĵæŀĦ":1790,"çķĻ":1791,"å°¼":1792,"çĻ¾":1793,"çļĦæĸ¹æ³ķ":1794,"å½ĵåľ°":1795,"å¹´è½»":1796,"ç»ıéªĮ":1797,"å®ĥçļĦ":1798,"çī¹å¾ģ":1799,"åıĺå¾Ĺ":1800,"çĸ«":1801,"æ³¢":1802,"äº®":1803,"çłģ":1804,"é£Łåĵģ":1805,"çĤ¼":1806,"è¡Įä¸ļ":1807,"åľ¨è¿Ļä¸ª":1808,"åķĨåĵģ":1809,"äº«åıĹ":1810,"å¤§éĩı":1811,"é¢ľèī²":1812,"å¯»æī¾":1813,"åªĴä½ĵ":1814,"å¦ĤæŀľæĤ¨":1815,"è¡¡":1816,"å¼Ĥ":1817,"å¿ĥçĲĨ":1818,"çļĦæµ":1819,"ç½Ĺ":1820,"çļĦæĸĩæľ¬":1821,"éĿĴ":1822,"æĭŁ":1823,"æľ¨":1824,"åĤ":1825,"è®¨è®º":1826,"è¡ĮåĬ¨":1827,"è´£":1828,"çļ®":1829,"æ´²":1830,"åĲ§":1831,"é¡»":1832,"è´ŁéĿ¢":1833,"ä¸Ģå®ļ":1834,"åħħæ»¡":1835,"åıĤåĬł":1836,"å¨ģ":1837,"ä¸ºä»Ģä¹Ī":1838,"ĥåľ":1839,"âĢĿãĢĤ":1840,"å¼Ģåıĳ":1841,"è¯ĳ":1842,"èĳĹåĲį":1843,"ä»·æł¼":1844,"æ¯ıä¸ªäºº":1845,"åŀĥåľ":1846,"åŀĥåľ¾":1847,"ä¼¤":1848,"éĥ¨çĶµå½±":1849,"æ¯ıå¤©":1850,"ä¸Ńå¿ĥ":1851,"å·¥åħ·":1852,"çŁ¥è¯Ĩ":1853,"ĊĊ":1854,"ãĢĤ\"":1855,"æ±½è½¦":1856,"ä¸ĢæŃ¥":1857,"è®¾å¤ĩ":1858,"æ¯į":1859,"ç¾¤":1860,"æ»©":1861,"åħ´è¶£":1862,"åĩºäºĨ":1863,"èĶ¬":1864,"ç´§":1865,"åĮĹäº¬":1866,"åľºæĻ¯":1867,"ä½ľåĵģ":1868,"åĵģçīĮ":1869,"ä¸ĵä¸ļ":1870,"ä»į":1871,"æĶ¹åĸĦ":1872,"åľŁ":1873,"éĤ®":1874,"è¿Ļä¸ªéĹ®é¢ĺ":1875,"çļĦæ¸":1876,"æł¹æį®ç»Ļå®ļçļĦ":1877,"æĽ¿":1878,"çļĦæķħäºĭ":1879,"æĪĳä¼ļ":1880,"è®²è¿°":1881,"è¿Ļåı¥è¯Ŀ":1882,"ç¾İä¸½":1883,"çļĦæŃ":1884,"çļĦæĶ":1885,"å¸®æĪĳ":1886,"éĩİ":1887,"èĪĴéĢĤ":1888,"åĪĽæĸ°":1889,"éĺ¿":1890,"çľł":1891,"ä¸ĢçĽ´":1892,"æīĭæľº":1893,"ç§ĺ":1894,"åº§":1895,"æ¼«":1896,"æ·±åº¦":1897,"è¯¢":1898,"åĩ»":1899,"çļĦçĶµå½±":1900,"æĶ¾æĿ¾":1901,"é¡¹çĽ®":1902,"åŃ©åŃĲ":1903,"èĥľ":1904,"çģµ":1905,"çŃĳ":1906,"éĢłæĪĲ":1907,"æħ¢":1908,"éĢĲ":1909,"å·ŀ":1910,"è¶ĭ":1911,"éĩįæĸ°":1912,"19":1913,"éĩĳèŀį":1914,"è§īå¾Ĺ":1915,"å·¨":1916,"ä¼ĳ":1917,"çł´":1918,"ä»¥ä¸ĭæĺ¯":1919,"çĩ":1920,"äºĭæĥħ":1921,"åĲ¸å¼ķ":1922,"åĪ¤æĸŃ":1923,"åĨ³å®ļ":1924,"èģĬ":1925,"èĶ¬èıľ":1926,"éĢģ":1927,"å½ķ":1928,"æ¤įçī©":1929,"çļĦçŁ":1930,"çĹĩ":1931,"èĢĮä¸Ķ":1932,"çĿ¡":1933,"ä¸ŃæıĲåıĸåĩº":1934,"èŃ¦":1935,"æķ°åŃĹ":1936,"åį°":1937,"åĨĽ":1938,"éĶ»":1939,"åįı":1940,"å·®":1941,"åī©":1942,"åı¦å¤ĸ":1943,"éļĲ":1944,"éĶ»çĤ¼":1945,"ä½³":1946,"æŃ¢":1947,"æĪĳåı¯ä»¥":1948,"é©¶":1949,"ä¸Ģæ¬¡":1950,"æ¸Ĳ":1951,"æĢ§çļĦ":1952,"çľĭåĪ°":1953,"å»ºçŃĳ":1954,"ç¿»è¯ĳ":1955,"å°Ĭ":1956,"éĩĩçĶ¨":1957,"æľīä»Ģä¹Ī":1958,"æ²³":1959,"éĶĢåĶ®":1960,"åı¯æĮģç»Ń":1961,"çºª":1962,"æĩ":1963,"çľ¼":1964,"è¶ĭåĬ¿":1965,"å¿ħé¡»":1966,"èª":1967,"é¢ĳ":1968,"æ°§":1969,"ç®Ģæ´ģ":1970,"æĸĩç«łä¸Ń":1971,"å°Ĩåħ¶":1972,"æ¢¦":1973,"åĽ¢éĺŁ":1974,"æĺ¨":1975,"ä¸įä¼ļ":1976,"éĴ±":1977,"æĿ¿":1978,"é©¾":1979,"ç»ª":1980,"ç§ģ":1981,"åĪ¶å®ļ":1982,"ä»¥ä¸Ĭ":1983,"åĬ©äºİ":1984,"åį«":1985,"åĵĪ":1986,"å¤įæĿĤ":1987,"åĪĿ":1988,"çļĦçł":1989,"å¿«éĢŁ":1990,"åĬ±":1991,"åľ°åĮº":1992,"çī¹çĤ¹":1993,"èĩªçĶ±":1994,"Ġ\"":1995,"æķ°åŃ¦":1996,"è¿Ļæ®µæĸĩæľ¬":1997,"çī¹åĪ«":1998,"æ¶ī":1999,"ä¸Ģåıª":2000,"éĥ½æľī":2001,"ä»£è¡¨":2002,"å±ŀäºİ":2003,"çĦ¶èĢĮ":2004,"æĥ³è¦ģ":2005,"åĨľ":2006,"çļĦæĳ":2007,"æĺ¯åľ¨":2008,"æĸĩåŃĹ":2009,"æĳĦ":2010,"èģĮä¸ļ":2011,"æĥ¯":2012,"çļĦæ²":2013,"è´¢":2014,"å¿Ĺ":2015,"è¡Ģ":2016,"çĽ®åīį":2017,"èĹ":2018,"ä¸ºæĤ¨":2019,"è¯Ħä»·":2020,"çĸĳ":2021,"å®ŀä½ĵ":2022,"æĲŃ":2023,"ä¼¦":2024,"ä¾Ŀ":2025,"éĻįä½İ":2026,"åĨ·":2027,"éĴĪ":2028,"å°ļ":2029,"éĺ³åħī":2030,"ç»ıåİĨ":2031,"å²ģ":2032,"å°½ç®¡":2033,"åºķ":2034,"åĲĪä½ľ":2035,"å©":2036,"æĬ¥éģĵ":2037,"åħ¬åı¸çļĦ":2038,"å¾Īå¥½":2039,"åı¯ä»¥éĢļè¿ĩ":2040,"çļĦçĶŁæ´»":2041,"æ·»":2042,"ä¸įè¦ģ":2043,"éĤ®ä»¶":2044,"æĺ¯æĮĩ":2045,"ç²ī":2046,"çļĦæĮ":2047,"äººå·¥æĻºèĥ½åľ¨":2048,"åĬłå¼º":2049,"çĽĸ":2050,"ç»§":2051,"åįļ":2052,"ç®ĢçŁŃ":2053,"æķ°éĩı":2054,"çī©è´¨":2055,"ç¼ĸåĨĻ":2056,"ä¿ĥè¿Ľ":2057,"ä½łèĥ½":2058,"æĥĬ":2059,"çīĪ":2060,"åħ±åĲĮ":2061,"çļĦæĦŁ":2062,"ç¾İé£Ł":2063,"è®©æĪĳ":2064,"å¼ºè°ĥ":2065,"è¿ĻéĩĮ":2066,"çļĦå»ºè®®":2067,"æ±ĩ":2068,"æľīåĬ©äºİ":2069,"ä¸ĬæľĢ":2070,"è¿Ļéĥ¨çĶµå½±":2071,"å¹¸":2072,"åĪļ":2073,"å°Ħ":2074,"çļĦæ¯":2075,"æĹ¨":2076,"ä¹łæĥ¯":2077,"åŁºç¡":2078,"è°¢è°¢":2079,"åŁºç¡Ģ":2080,"éĩįåĨĻ":2081,"åıĮ":2082,"æľīå¾Īå¤ļ":2083,"ç¤¼":2084,"èģĶç½ĳ":2085,"æľīäºĽ":2086,"èĻļ":2087,"æķ´ä¸ª":2088,"ä¸ĢåĲį":2089,"ç§»":2090,"ä½¿å¾Ĺ":2091,"èĪŀ":2092,"åĨ³çŃĸ":2093,"éĵģ":2094,"åĬĽåĴĮ":2095,"åį´":2096,"åĮ»åŃ¦":2097,"äº¤æµģ":2098,"å½¢å¼ı":2099,"åį±":2100,"ä¸įéĶĻ":2101,"å±Ģ":2102,"çļĦæķ°æį®":2103,"æĬĢèĥ½":2104,"å¡ĳ":2105,"âĢĶ":2106,"åįĪ":2107,"èĮ¶":2108,"è¿Ļæĺ¯ä¸Ģ":2109,"æĤ£èĢħ":2110,"ç¥¨":2111,"å®ĩ":2112,"åŁºæľ¬":2113,"æľ¬æĸĩ":2114,"æĬĢå·§":2115,"æľºåĻ¨äºº":2116,"å¯Ł":2117,"å¹»":2118,"çļĦæı":2119,"æ¯Ĵ":2120,"èģĶç³»":2121,"çļĦç¤":2122,"è¯´æĺİ":2123,"çī¹å®ļ":2124,"åı«":2125,"Ġ-":2126,"çŃīæĸ¹éĿ¢":2127,"èķ":2128,"ä»¤äºº":2129,"æĭħ":2130,"æİ¢è®¨":2131,"åķĬ":2132,"å¢ŀå¼º":2133,"é¥Ń":2134,"åĪĨéĴŁ":2135,"æĢĿèĢĥ":2136,"è¿ĩç¨ĭä¸Ń":2137,"ç¹":2138,"åįĥ":2139,"æ¯Ľ":2140,"åĸĿ":2141,"çĭ¬çī¹":2142,"è®©äºº":2143,"æıĲåĪ°":2144,"ä¸ªèĭ¹æŀľ":2145,"å®£":2146,"ä½įç½®":2147,"èĢģå¸Ī":2148,"å³°":2149,"ç«ŀ":2150,"è±Ĩ":2151,"çº³":2152,"æ¬¢è¿İ":2153,"è¯ŃéŁ³":2154,"æĸĩæľ¬ä¸Ń":2155,"èĸ":2156,"ç¬¬äºĮ":2157,"éŀ":2158,"æĬ½":2159,"ä»ĺ":2160,"å¥¥":2161,"æ©Ļ":2162,"åıªæľī":2163,"åĿĲ":2164,"éĢŁåº¦":2165,"ä»¥ä¾¿":2166,"è¡ĮæĺŁ":2167,"ç«¯":2168,"ç»Ŀ":2169,"æĸĩåŃ¦":2170,"éĢı":2171,"è¿Ľä¸ĢæŃ¥":2172,"èģļ":2173,"æĦŁè§ī":2174,"è·Ł":2175,"è¯¾":2176,"è¾ĵåĩº":2177,"å®¹æĺĵ":2178,"æĦŁè°¢":2179,"ç¤¾äº¤åªĴä½ĵ":2180,"å½¢æĪĲ":2181,"æī§":2182,"çģ¾":2183,"æŃ£éĿ¢":2184,"ä¹ħ":2185,"çļĦæ°´":2186,"ä½Ļ":2187,"é¡º":2188,"çļĦçľ":2189,"æĦ¿":2190,"çĦ¦":2191,"é¹":2192,"é©¾é©¶":2193,"çĮ®":2194,"ç»ĦæĪĲ":2195,"ç¬ĳ":2196,"è¿Ļæĺ¯ä¸Ģä¸ª":2197,"å®ŀéĻħ":2198,"æ¶īåıĬ":2199,"çıŃ":2200,"å¤§åĪ©":2201,"æ·±åº¦åŃ¦ä¹ł":2202,"çĥĪ":2203,"åĪĽæĦı":2204,"çļĦæĬĢæľ¯":2205,"è¿Ļä¸Ģ":2206,"åģ¥èº«":2207,"èĪ¬":2208,"èĪª":2209,"æ¦Ĥæĭ¬":2210,"åįĬ":2211,"ç»ĥä¹ł":2212,"åģļåĩº":2213,"åŃ¦æł¡":2214,"é¾Ļ":2215,"çļĦä¸»é¢ĺ":2216,"ä¸įåı¯":2217,"æĿ¡ä»¶":2218,"åıĺæļĸ":2219,"äººåĳĺ":2220,"åĲįåŃĹ":2221,"é¼ĵ":2222,"æıĲä¾ĽäºĨ":2223,"èĲ¥åħ»":2224,"ç»§ç»Ń":2225,"çļĦæĹ¶éĹ´":2226,"ç¼ĸç¨ĭ":2227,"åĳĺå·¥":2228,"åĲįè¯į":2229,"çİĽ":2230,"æĦıè¯Ĩ":2231,"éĵ¾":2232,"æķħ":2233,"åı¯ä»¥åľ¨":2234,"ç»ıå¸¸":2235,"é«ĺçļĦ":2236,"æĸ¹åĲĳ":2237,"è´Ńçī©":2238,"èĥĮæĻ¯":2239,"èĩªæĪĳ":2240,"åĨ¬":2241,"éĢĤå½ĵ":2242,"æĦıä¹ī":2243,"éĵ¶":2244,"æ°´å¹³":2245,"å¤ļä¸ª":2246,"èĮĥåĽ´":2247,"ä»İæĸĩç«ł":2248,"é¢Ŀ":2249,"çļĦå¤©æ°Ķ":2250,"æĭ¿":2251,"å¤ļç§į":2252,"è¯ĹæŃĮ":2253,"åĽ¾åĥı":2254,"åħ°":2255,"ä¸¥éĩį":2256,"å®ĺ":2257,"åĳ¼åĲ¸":2258,"çī©åĵģ":2259,"ä¼´":2260,"æĮīçħ§":2261,"éŀĭ":2262,"å¦Ĥä¸ĭ":2263,"åºĶå¯¹":2264,"è¿·":2265,"çļĦå°ı":2266,"å®ł":2267,"èĲ¨":2268,"å¸¸è§ģ":2269,"å¤ıå¤©":2270,"æ¸ħæĻ":2271,"æ»¡è¶³":2272,"ç¢³":2273,"åĲĮæĹ¶ä¹Ł":2274,"è½¯ä»¶":2275,"å¹³è¡¡":2276,"æ´ŀ":2277,"å¯¹è¯ĿåĨħå®¹":2278,"æľ«":2279,"é¡¾":2280,"çŁŃè¯Ń":2281,"æĬ±":2282,"åİ»äºĨ":2283,"ä¼ļè®®":2284,"ä¼°":2285,"éª¤":2286,"ç±»åĪ«":2287,"æ£ĢæŁ¥":2288,"çļĦçĪ":2289,"åĢĭ":2290,"åĭĩ":2291,"ä¸ĭæĿ¥":2292,"è¯·ä½ł":2293,"15":2294,"æĽ¾":2295,"çĨŁ":2296,"ç»ıåħ¸":2297,"éĽª":2298,"çºł":2299,"æľ¬ä¹¦":2300,"ç¹ģ":2301,"èµı":2302,"æĲľ":2303,"å¼ķèµ·":2304,"æıĲåĪ°äºĨ":2305,"äºĭå®ŀ":2306,"ç©ºæ°Ķ":2307,"æľĹ":2308,"çļĦæłĩ":2309,"ä½įäºİ":2310,"åŃ¤":2311,"åģı":2312,"åıĤä¸İ":2313,"åĿı":2314,"è¸":2315,"æ´Ĺ":2316,"è¯»èĢħ":2317,"Ġåľ¨":2318,"åħĥç´ł":2319,"éŃĶ":2320,"çļĦåħ³éĶ®":2321,"æĬķèµĦ":2322,"çĶµè§Ĩ":2323,"æĦī":2324,"å½ĵçĦ¶åı¯ä»¥":2325,"ä»Ģä¹Īæĺ¯":2326,"æ³³":2327,"åķĨä¸ļ":2328,"æĹ¥å¸¸":2329,"ç¨³":2330,"æĽ´å¥½çļĦ":2331,"æĺ¨å¤©":2332,"è°Ī":2333,"åĪĨäº«":2334,"ç§ĳåŃ¦å®¶":2335,"éĿ¢ä¸´":2336,"çľģ":2337,"åĩºæĿ¥":2338,"çļĦçłĶç©¶":2339,"æŁĶ":2340,"çķħ":2341,"å§Ĩ":2342,"åĢ¼å¾Ĺ":2343,"çļĦæĸ¹å¼ı":2344,"æ¸©åº¦":2345,"çĶľ":2346,"æ²ī":2347,"è·Ŀ":2348,"åģľ":2349,"æİĴæĶ¾":2350,"è´µ":2351,"éĢĶ":2352,"æ·»åĬł":2353,"è¿ĩåİ»":2354,"å®łçī©":2355,"åĬĽéĩı":2356,"éĢīé¡¹":2357,"é¥°":2358,"æľīçĿĢ":2359,"æĪĳåĸľæ¬¢":2360,"çĨĬ":2361,"éħ±":2362,"è¶ħè¿ĩ":2363,"æķĪæŀľ":2364,"èĤ¡":2365,"è°ģ":2366,"çİ°å®ŀ":2367,"å²Ľ":2368,"åı£æĦŁ":2369,"å°Ĩä¼ļ":2370,"éħ¸":2371,"éĻĪ":2372,"ç³»åĪĹ":2373,"ï¼ģ<|":2374,"åĽ½å®¶":2375,"çļĦå·¥ä½ľ":2376,"çļĦç¬":2377,"ç¾İåĳ³":2378,"ä¼½":2379,"ï¼ĮâĢľ":2380,"æŃ»":2381,"å¹³åĿĩ":2382,"å¥ĸ":2383,"æĴŃ":2384,"è¿ĽæŃ¥":2385,"éľ²":2386,"å¤«":2387,"éĿł":2388,"æ¬§":2389,"ç³ķ":2390,"æ£®":2391,"å¿ĺ":2392,"å¤§åŃ¦":2393,"äººçī©":2394,"æİĮ":2395,"å®Ļ":2396,"ç¥ŀç»ı":2397,"çļĦæ®":2398,"æľĢåĸľæ¬¢":2399,"åĪĽå»º":2400,"åħ¨çĲĥåıĺæļĸ":2401,"éĢĤåºĶ":2402,"èĨ":2403,"çŃīé¢ĨåŁŁ":2404,"éĴĪå¯¹":2405,"æĺİå¤©":2406,"ä»İè¿Ļç¯ĩæĸĩç«ł":2407,"åŁ¹":2408,"å¿Ĩ":2409,"è´§":2410,"12":2411,"çļĦæĥħåĨµ":2412,"äºĴèģĶç½ĳ":2413,"æľīä¸Ģä¸ª":2414,"ä¹īè¯į":2415,"è°ĥæķ´":2416,"å¥Ĺ":2417,"å®ĩå®Ļ":2418,"çļĦæľĢ":2419,"åĨĻä½ľ":2420,"ä¹³":2421,"éĿ©":2422,"çĽ¸åĲĮ":2423,"åıĸå¾Ĺ":2424,"çļĦåľ°æĸ¹":2425,"åĲĪéĢĤ":2426,"ľä¼½":2427,"ä¿®æĶ¹":2428,"è¿Ļä¸ªåı¥åŃĲ":2429,"30":2430,"çļĦæ´":2431,"è§Ĩè§ī":2432,"è®©æĪĳä»¬":2433,"æ¸ħæĻ°":2434,"æĪĳä»¬åºĶè¯¥":2435,"çĪ±æĥħ":2436,"åī©ä¸ĭ":2437,"æ¥¼":2438,"çº½":2439,"å°ıæĹ¶":2440,"æ³ķå¾ĭ":2441,"éģĹ":2442,"æĥħèĬĤ":2443,"ä¸Ģé¦ĸ":2444,"é«ĺæķĪ":2445,"æ·±åħ¥":2446,"æļĹ":2447,"å½¢å®¹":2448,"æı¡":2449,"æī¿":2450,"èĲ¥éĶĢ":2451,"æ··":2452,"åĽłä¸ºå®ĥ":2453,"åĨĴ":2454,"åĪĽä½ľ":2455,"è·³":2456,"åĽ°éļ¾":2457,"æĹ¥æľ¬":2458,"åĢĴ":2459,"ä¸ªç³ĸæŀľ":2460,"åľ°çĤ¹":2461,"ç§Ģ":2462,"èĹı":2463,"æµ·æ´ĭ":2464,"ä»ĭç»įäºĨ":2465,"åºĬ":2466,"æ±Ł":2467,"çŃĸçķ¥":2468,"çļĦæ®µ":2469,"æ½ľ":2470,"éļĲç§ģ":2471,"è¶³å¤Ł":2472,"è¯įæ±ĩ":2473,"çĽ¸ä¼¼":2474,"æĹ¶å°ļ":2475,"æ±ī":2476,"æĹ¥æľŁ":2477,"ç£":2478,"å·§åħĭ":2479,"éģĵå¾·":2480,"å¡ĳæĸĻ":2481,"èĭ±è¯Ń":2482,"çļĦå¤§":2483,"çļĦè¯Ŀ":2484,"çļĦçĥ":2485,"ç½ĳç«Ļ":2486,"æ±¤":2487,"æ£Ĵ":2488,"å·¦":2489,"ä¼ĺåĮĸ":2490,"100":2491,"çļĦæ°Ķ":2492,"çļĦæ®µèĲ½":2493,"å¿«ä¹Ĳ":2494,"çļĦç¤¾":2495,"ç»ĨèĬĤ":2496,"æĵį":2497,"ä¾ĭåŃĲ":2498,"å¹¶åľ¨":2499,"éĨĴ":2500,"æ¸¸æ³³":2501,"å®Ī":2502,"ç»¿èī²":2503,"çĦ¦èĻĳ":2504,"æļ´":2505,"èį¯çī©":2506,"å®ĥä»¬çļĦ":2507,"åĪĨç±»ä¸º":2508,"éļľ":2509,"çĻ»":2510,"è´£ä»»":2511,"è¢ĭ":2512,"æľĿ":2513,"æĺ¯çļĦ":2514,"æıĲåĩº":2515,"åŃ£èĬĤ":2516,"æł¹æį®ä»¥ä¸ĭ":2517,"ä¿Ŀåģ¥":2518,"æĹłè®º":2519,"æ¶Īè´¹":2520,"é¡¿":2521,"ä»įçĦ¶":2522,"çļĦæĹ¶åĢĻ":2523,"ä¸Ģç¯ĩæĸĩç«ł":2524,"æĬ¥åĳĬ":2525,"æĶ¿çŃĸ":2526,"å¹¿åĳĬ":2527,"çļĦå¥½":2528,"çģ¯":2529,"ä»¥ä¸ĭæĺ¯ä¸Ģ":2530,"å¹³åı°":2531,"åĲĪçĲĨ":2532,"åı³":2533,"çļĦéĩįè¦ģæĢ§":2534,"ç»ŃåĨĻ":2535,"çļĦé£Łçī©":2536,"å¤ļæł·":2537,"æ¨¡å¼ı":2538,"å°ģ":2539,"äººå·¥æĻºèĥ½çļĦ":2540,"å·§åħĭåĬĽ":2541,"ç¥ŀç§ĺ":2542,"åĹ":2543,"ŁéĢļ":2544,"è¡Ĺ":2545,"å¢ŀéķ¿":2546,"åľ¨å®¶":2547,"..":2548,"çĬ¯":2549,"ç®±":2550,"æµĵ":2551,"åıįåºĶ":2552,"ä¸įè¿ĩ":2553,"çĹĽ":2554,"ä¸Ģæł·":2555,"åľĨ":2556,"å°ıæĺİæľī":2557,"èĢĲ":2558,"å¹¸ç¦ı":2559,"æĮ¥":2560,"æĬĺ":2561,"å¸¦æĿ¥äºĨ":2562,"æĭ¼":2563,"åĺ":2564,"åĮĸçļĦ":2565,"ç¬¦åĲĪ":2566,"èĦĤ":2567,"æĶ¹è¿Ľ":2568,"çĳľä¼½":2569,"å¡Ķ":2570,"æĲľç´¢":2571,"çĬ¶æĢģ":2572,"åĨ²":2573,"åı£åĳ³":2574,"åĪ¶éĢł":2575,"çļĦæµ·":2576,"çĶµèĦĳ":2577,"å¿ħè¦ģ":2578,"ç¼ĵè§£":2579,"50":2580,"ä¹İ":2581,"æķĳ":2582,"æĦŁåıĹ":2583,"æĬĹ":2584,"çº½çº¦":2585,"çī©çĲĨ":2586,"Ġ=":2587,"è£¤":2588,"çº¸":2589,"æĺİç¡®":2590,"äººåĲį":2591,"è¯įè¯Ń":2592,"çļĦæĳĺè¦ģ":2593,"åħ¶æ¬¡":2594,"ä¸Ĭåįĩ":2595,"èĦļ":2596,"é¼ĵåĬ±":2597,"æŃ£ç¡®çļĦ":2598,"ç«ŀäºī":2599,"ç«¥":2600,"åį³åı¯":2601,"æĢ»æĺ¯":2602,"éĹ²":2603,"çļĦä¸»":2604,"åľ°æĸ¹":2605,"åĬ¨ä½ľ":2606,"æĥħç»ª":2607,"æł¸":2608,"å·¥ç¨ĭ":2609,"åĪĨç»Ļ":2610,"ç±į":2611,"æıĲä¾Ľä¸Ģä¸ª":2612,"æ½®":2613,"éĢĲæ¸Ĳ":2614,"çİ°è±¡":2615,"åıĹæ¬¢è¿İ":2616,"åĽ½éĻħ":2617,"è¿½æ±Ĥ":2618,"éĻĲåĪ¶":2619,"é»İ":2620,"å®¶å±ħ":2621,"æŁĲäºĽ":2622,"ä¹ĭåīį":2623,"åĩıè½»":2624,"è¾Ĩ":2625,"æ¬£":2626,"è´¡":2627,"æ°¸":2628,"ä¸ĸçºª":2629,"çħ®":2630,"æµĭè¯ķ":2631,"çĽĲ":2632,"åĳ³éģĵ":2633,"è·Ŀç¦»":2634,"æĻ¯çĤ¹":2635,"æıĲåįĩ":2636,"ä¸Ģåı¥è¯Ŀ":2637,"èĿ":2638,"18":2639,"å¤ªç©º":2640,"èĤ¤":2641,"åºĶçĶ¨äºİ":2642,"ä¸Ŀ":2643,"çĶŁæĢģç³»ç»Ł":2644,"æĲŃéħį":2645,"è°·":2646,"ä¸ĸçķĮä¸ĬæľĢ":2647,"±ä¹Ĳ":2648,"çĤº":2649,"åħ¬åħ±":2650,"æİ¨åĬ¨":2651,"ä¸ĭæĸĩ":2652,"è®©ä½ł":2653,"ä»¿":2654,"éĶħ":2655,"å®ŀéªĮ":2656,"åº¦åĴĮ":2657,"éĸ":2658,"åĵªä¸ª":2659,"ç»¼":2660,"ç¥Ŀ":2661,"æĻļä¸Ĭ":2662,"ä¸Ģå®¶":2663,"ä¸ªæĢ§":2664,"ä½¿åħ¶æĽ´åĬł":2665,"çº¢èī²":2666,"ç©ºéĹ´":2667,"å¼łä¸ī":2668,"çĶ¨æĿ¥":2669,"è§£åĨ³æĸ¹æ¡Ī":2670,"åĢĳ":2671,"æ±ł":2672,"æ©ĻåŃĲ":2673,"å¤ıåŃ£":2674,"æĪĲéķ¿":2675,"çļĦåĨħå®¹":2676,"å¸ģ":2677,"æĦıæĢĿ":2678,"æĿĳ":2679,"è´¡çĮ®":2680,"æĺ¯çĶ±":2681,"éĵħ":2682,"æ¹ĸ":2683,"çļĦæ³":2684,"çĽĺ":2685,"å±ķç¤º":2686,"çīĽå¥¶":2687,"ä¹ĺ":2688,"è¯Ħä¼°":2689,"èµŀ":2690,"åĲ«ä¹ī":2691,"ä¸¤ä¸ªåı¥åŃĲ":2692,"æ°Ķä½ĵ":2693,"å¿Ļ":2694,"è²":2695,"æľºæŀĦ":2696,"æŃ§":2697,"æĹ©ä¸Ĭ":2698,"__":2699,"æľªæĿ¥çļĦ":2700,"åİŁå§ĭ":2701,"åĬ³":2702,"å¥³æĢ§":2703,"çĬ¶åĨµ":2704,"å®«":2705,"å®Įåħ¨":2706,"æ±ģ":2707,"åĴĮåħ¶ä»ĸ":2708,"çļĦåİĨåı²":2709,"æī©":2710,"ãĢĤâĢĿ<|":2711,"ä¸ĢèĪ¬":2712,"åİļ":2713,"ç»Ļåĩºä¸Ģä¸ª":2714,"è°ĥæŁ¥":2715,"åľ¨çº¿":2716,"èİ·åıĸ":2717,"æķ£æŃ¥":2718,"å¥ĭ":2719,"å°Ĭéĩį":2720,"æĿ¥èĩª":2721,"çĶŁæ´»ä¸Ń":2722,"æĪ·å¤ĸ":2723,"åĤ¨":2724,"è®°å½ķ":2725,"è¿Ļå®¶":2726,"ç¯®":2727,"çĽ¸ä¿¡":2728,"åĮ»çĸĹä¿Ŀåģ¥":2729,"åĲ¯":2730,"ä¸ľè¥¿":2731,"æ»ĳ":2732,"çĽ´æİ¥":2733,"æĪĲæľ¬":2734,"ä¹Łä¼ļ":2735,"åĪĹè¡¨":2736,"åı¯èĥ½æĺ¯":2737,"æĬĢæľ¯çļĦ":2738,"æĦıåĳ³":2739,"æĺł":2740,"å°į":2741,"åħŃ":2742,"è¾¾åĪ°":2743,"çļĦæĢĿ":2744,"åĽŀçŃĶéĹ®é¢ĺ":2745,"ç½ª":2746,"å¥¹çļĦ":2747,"ä¸įçŁ¥éģĵ":2748,"çłĶ":2749,"è®ºæĸĩ":2750,"å¾Ħ":2751,"åºĶçĶ¨ç¨ĭåºı":2752,"æĦıå¤§åĪ©":2753,"ä¸Ĭæµ·":2754,"æĪĳè®¤ä¸º":2755,"å¦Ī":2756,"éĵħç¬Ķ":2757,"åĨł":2758,"éĤ£éĩĮ":2759,"æĸ¹ä¾¿":2760,"çİī":2761,"åĪĨåĪ«":2762,"æĪĳå¾Ī":2763,"è¡¨è¾¾äºĨ":2764,"ç¼©":2765,"éĢĻ":2766,"çĥ§":2767,"åŃ¦ä¹łåĴĮ":2768,"ç»Ļä½ł":2769,"æĿ°":2770,"æŃ¥éª¤":2771,"æįŁ":2772,"èĳĹåĲįçļĦ":2773,"å·´é»İ":2774,"æ·±åĪ»":2775,"æĢ¥":2776,"éģį":2777,"ç¨³å®ļ":2778,"æ´¾":2779,"éº¦":2780,"èĽĭçĻ½":2781,"è¶³çĲĥ":2782,"åĽº":2783,"èĩ³å°ĳ":2784,"éĩıåŃĲ":2785,"ä¸Ģå¤©":2786,"åĩī":2787,"æĶ¹åĨĻ":2788,"æŀ¶":2789,"åı¯ä»¥ä½¿çĶ¨":2790,"è¿Ļç¯ĩ":2791,"æĸĹ":2792,"çĩĥ":2793,"æĸ°éĹ»æĬ¥éģĵ":2794,"æĦıåĳ³çĿĢ":2795,"æĽ¿æį¢":2796,"åĳĪ":2797,"çİ¯å¢ĥä¿ĿæĬ¤":2798,"é¥¼":2799,"åĪº":2800,"å®½":2801,"çĤĴ":2802,"åıĳå¸ĥ":2803,"åĮĸåŃ¦":2804,"éĻĦ":2805,"æŃī":2806,"è¡¨éĿ¢":2807,"ä½Ľ":2808,"åĿļæĮģ":2809,"å½ĵåīį":2810,"åı¥åŃĲä¸Ń":2811,"å¤©ç©º":2812,"ç±»ä¼¼":2813,"äººçĶŁ":2814,"çļĦäºĭæĥħ":2815,"éľĩ":2816,"åģ¥åº·çļĦ":2817,"æ°Ķæ¸©":2818,"ä¸Ģç»Ħ":2819,"çļĦä¸Ģä¸ª":2820,"æģ¶":2821,"æĿŁ":2822,"å¹¶ä¸į":2823,"èĩªè¡Į":2824,"æĶ»":2825,"ä»¥ç¡®ä¿Ŀ":2826,"åºŁ":2827,"åĶ±":2828,"éĽħ":2829,"ç»©":2830,"on":2831,"å¯Ĵ":2832,"æĤ¦":2833,"ä¿Ŀè¯ģ":2834,"çŃ¾":2835,"çļĦæ´»":2836,"è®¢":2837,"æ¯ıä¸ªæľĭåıĭ":2838,"åĪĨåĪ°":2839,"å°¤":2840,"çĽ¸åħ³çļĦ":2841,"å¹ħ":2842,"æİ¨å¹¿":2843,"çļĦç³":2844,"æ¶¦":2845,"è¡£æľį":2846,"åºĵ":2847,"çīĻ":2848,"ç»ĺ":2849,"éľĢè¦ģæ³¨æĦı":2850,"¡èĲ":2851,"çľŁæŃ£":2852,"åĬ¨è¯į":2853,"æī§è¡Į":2854,"ä¼ĺåĬ¿":2855,"æİī":2856,"æģĲ":2857,"æĢĿæĥ³":2858,"åı¯ä»¥è¢«":2859,"èĥ½éĩı":2860,"èĤĮ":2861,"èĭ¦":2862,"çĽĽ":2863,"æİ¥åıĹ":2864,"ç§ĳå¹»":2865,"å®ļä¹ī":2866,"æ¤Ĵ":2867,"çļĦæĸ°":2868,"æ¨¡æĭŁ":2869,"çıį":2870,"ä¸Ģä¸ªäºº":2871,"åı¯æĮģç»Ńåıĳå±ķ":2872,"å¾ª":2873,"éªĳ":2874,"å®īæİĴ":2875,"èĢĮä¸įæĺ¯":2876,"å¼ĥ":2877,"ç»ĵåĲĪ":2878,"çļĦæĻº":2879,"çļĦçĭ":2880,"æ£®æŀĹ":2881,"æĺİäºĨ":2882,"åıĳæĮ¥":2883,"åĴĮæĸĩåĮĸ":2884,"è½»æĿ¾":2885,"çļĦçĪ±":2886,"ä½łéľĢè¦ģ":2887,"ä¸»ä¹ī":2888,"ä¸ĭåĪĹ":2889,"ä½łå¥½":2890,"åĩºèī²":2891,"çļĦæıı":2892,"è¯·åĳĬè¯īæĪĳ":2893,"çĽ¸äºĴ":2894,"çļĦæĦıæĢĿ":2895,"ä¸ŃæľĢ":2896,"çĿ¡çľł":2897,"å®¶äºº":2898,"æıĲä¾Ľä¸ĢäºĽ":2899,"èĤ¥":2900,"åħ±æľī":2901,"ä¼ĺç§Ģ":2902,"äºĨä¸ĢäºĽ":2903,"å®ļæľŁ":2904,"èĭı":2905,"å©ļ":2906,"åĪĹåĩº":2907,"äººç±»çļĦ":2908,"è©":2909,"åľ¨ä¸Ģèµ·":2910,"è·µ":2911,"ç»Ļå®ļä¸Ģä¸ª":2912,"å¨±ä¹Ĳ":2913,"å°¾":2914,"æĵįä½ľ":2915,"çļĦçģ":2916,"è§Ĥä¼Ĺ":2917,"æ³¨éĩį":2918,"çĥŁ":2919,"é«ĺåħ´":2920,"æµģè¡Į":2921,"çĽ®çļĦåľ°":2922,"æĺ¯ä¸Ģéĥ¨":2923,"çµ":2924,"å¤§å®¶":2925,"çĶŁåŃĺ":2926,"ä¹Łæľī":2927,"èĽĭç³ķ":2928,"æīĢæľīçļĦ":2929,"ç¿°":2930,"çĽ¸å¯¹":2931,"æ¹¿":2932,"æĪĳåľ¨":2933,"èī¯å¥½çļĦ":2934,"çļĦæ¦Ĥ":2935,"åĨĻä¸Ģç¯ĩ":2936,"éĿ¢å¯¹":2937,"ä¹¦ç±į":2938,"é¥®æĸĻ":2939,"èĥģ":2940,"éĢ»":2941,"æĹ¶ä»£":2942,"æĢ»ä¹ĭ":2943,"åĿ¦":2944,"å®ľ":2945,"ç»ĵè®º":2946,"åĮ»çĸĹé¢ĨåŁŁ":2947,"è·ĳæŃ¥":2948,"è®¿":2949,"èĪ¹":2950,"é¾Ħ":2951,"ç¨ĭåº¦":2952,"ä¾Ĩ":2953,"åı¤è¯Ĺ":2954,"éĢĤéĩı":2955,"æľµ":2956,"çľŁçļĦ":2957,"åıªæĺ¯":2958,"è¯ļ":2959,"åŃ¤çĭ¬":2960,"é¢Ħéĺ²":2961,"çļĦæĢ»":2962,"åħ¶ä¸ŃçļĦ":2963,"æİ¨çĲĨ":2964,"æİĮæı¡":2965,"æĬ½åıĸ":2966,"éĤ£äºĽ":2967,"çĶļ":2968,"åĵº":2969,"è¿Ľåħ¥":2970,"å¨ģèĥģ":2971,"æ³¡":2972,"å¥ı":2973,"å¯»æ±Ĥ":2974,"ä¸ļåĬ¡":2975,"è°±":2976,"åĵ¥":2977,"åīįå¾Ģ":2978,"æľīåĵªäºĽ":2979,"æ¼Ķåĳĺ":2980,"æµģçķħ":2981,"è¿Ľè¡ĮåĪĨç±»":2982,"202":2983,"æĮĩåĩº":2984,"è§ĦåĪĴ":2985,"å®ŀè·µ":2986,"çĭ¬çī¹çļĦ":2987,"åĳ¨åĽ´":2988,"æĪĲè¯Ń":2989,"å¹´çļĦ":2990,"æĸĩæľ¬åĨħå®¹":2991,"è¾£":2992,"ç»ıè¿ĩ":2993,"æ¸©æļĸ":2994,"ä½ĵèĤ²":2995,"çıł":2996,"éĩįçĤ¹":2997,"æŃ§è§Ĩ":2998,"çİĽä¸½":2999,"å£°éŁ³":3000,"æ¦Ĥå¿µ":3001,"æ°§åĮĸ":3002,"ä»ĸåľ¨":3003,"éĽ¶":3004,"ä¸Ńæĸĩ":3005,"åŃ¸":3006,"å¼ĢæĶ¾":3007,"åįģåĪĨ":3008,"å¾Ĺåĩº":3009,"éĢ»è¾ĳ":3010,"ç²¾ç¥ŀ":3011,"èķī":3012,"æĹ¨åľ¨":3013,"æ¶²":3014,"åĵªéĩĮ":3015,"çļĦçŁŃ":3016,"çº¦ç¿°":3017,"æ³°":3018,"çī©ä½ĵ":3019,"çĹħæ¯Ĵ":3020,"é¸¡èĽĭ":3021,"è¿ŀæİ¥":3022,"å¦Ļ":3023,"å¤ªéĺ³ç³»":3024,"èĩªåĬ¨åĮĸ":3025,"è§ĦåĪĻ":3026,"ä½¿åħ¶æĽ´":3027,"æľĢä½³":3028,"èĻļæĭŁ":3029,"éĥ½ä¼ļ":3030,"çļĦæĥ³":3031,"éķ¿åº¦":3032,"æĢĢ":3033,"ä¸Ģæ¬¾":3034,"èĩªåĬ¨é©¾é©¶":3035,"çļĦæĻ¯":3036,"æıĲåıĸåĩº":3037,"è´Ŀ":3038,"èº«ä½ĵåģ¥åº·":3039,"è½®":3040,"ä¸ĬéĿ¢":3041,"çĲĨè®º":3042,"æķ¬":3043,"èľľ":3044,"åĩĢ":3045,"éģµ":3046,"åĢ¾":3047,"èĵĿèī²":3048,"å´":3049,"é¦Ļèķī":3050,"åľ¨ä¸Ģä¸ª":3051,"çļĦé£İéĻ©":3052,"ä¹¡":3053,"äº¡":3054,"200":3055,"æµ·æ»©":3056,"æĸ°é²ľ":3057,"åħ³éĶ®ä¿¡æģ¯":3058,"æĪĳéľĢè¦ģ":3059,"åĲĦä¸ª":3060,"æĪĲä¸ºäºĨ":3061,"èĭ±åĽ½":3062,"æľīæīĢ":3063,"è¡¥":3064,"ç¾İå¥½çļĦ":3065,"èĦ±":3066,"æ··åĲĪ":3067,"åĵºä¹³":3068,"ä¼ĺçĤ¹":3069,"çĤİ":3070,"åĪĨä¸º":3071,"ï¼īï¼Į":3072,"æĺ¾ç¤º":3073,"è¿Ļæ¬¾":3074,"å¥³åŃ©":3075,"èĤ¯":3076,"åĨĻä¸Ģä¸ª":3077,"å°Ĩä»¥ä¸ĭ":3078,"æĬ±æŃī":3079,"çĶ³":3080,"å·¥ä¸ļ":3081,"ä¸»äºº":3082,"ç§¯æŀģçļĦ":3083,"è´¥":3084,"çŁŃæĸĩ":3085,"éĹŃ":3086,"éº¼":3087,"æĺ¯ä¸ŃåĽ½":3088,"åį·":3089,"èªī":3090,"é«ĺåº¦":3091,"çļĦæ´»åĬ¨":3092,"å°ıåŃ¦":3093,"çĬ¬":3094,"æ²ŁéĢļ":3095,"æĸĩåĮĸåĴĮ":3096,"æĩĤ":3097,"ãĢĭãĢģ":3098,"ç¾İä¸½çļĦ":3099,"æ¡Į":3100,"è¿¹":3101,"è¯·ç»ĻæĪĳ":3102,"èĩªè¡Įè½¦":3103,"æĺ¯ä¸Ģä½į":3104,"åħ«":3105,"æł¹æį®æıĲä¾Ľ":3106,"åľ£":3107,"æ¾":3108,"XX":3109,"éĿ¢åĮħ":3110,"å«":3111,"ç®Ģè¦ģ":3112,"ĠâĢľ":3113,"è¯ŃéŁ³è¯ĨåĪ«":3114,"éĥģ":3115,"çļĦæııè¿°":3116,"éķĩ":3117,"ç¥ŀç»ıç½ĳç»ľ":3118,"çļĦæīĭ":3119,"æĭį":3120,"éĻĪè¿°":3121,"ï¼īãĢĤ":3122,"ä¹ĭåĲİ":3123,"æłĩåĩĨ":3124,"å¹³çŃī":3125,"æĹ¶æľŁ":3126,"çļĦçŃĶæ¡Ī":3127,"èİĵ":3128,"ä¹ı":3129,"è§¦":3130,"åįļçī©":3131,"èĭĹ":3132,"åģ¥åº·é¥®é£Ł":3133,"å»¶":3134,"éŃĶæ³ķ":3135,"åºĨ":3136,"ĠĠ":3137,"æĹ¶éĹ´åĴĮ":3138,"ç¤¾åĮº":3139,"çļĦæĭ":3140,"æŁĲä¸ª":3141,"ç¬¬ä¸Ģ":3142,"å±ķçİ°":3143,"åĳ¨æľ«":3144,"æķ°æį®éĽĨ":3145,"ä»£çłģ":3146,"è½¬æį¢":3147,"è¯¾ç¨ĭ":3148,"èĢ³":3149,"æī¾åĩº":3150,"å·¦åı³":3151,"éª¨":3152,"é¢Ĩå¯¼":3153,"å¾ĹåĪ°äºĨ":3154,"åīĤ":3155,"ç§°ä¸º":3156,"è³":3157,"åı¤ä»£":3158,"ç®ĢåįķçļĦ":3159,"åĬĽçļĦ":3160,"çļĦæĢ§":3161,"æľŁéĹ´":3162,"å®Ĺ":3163,"æ¬£èµı":3164,"çļĦæİ¨":3165,"åĨįçĶŁ":3166,"æĸĩæľ¬ä¸ŃçļĦ":3167,"åĨ¥":3168,"åĪĨéħį":3169,"ä¼ĳæģ¯":3170,"æĶ¾åľ¨":3171,"æĦŁåıĹåĪ°":3172,"è¯Ńè¨Ģæ¨¡åŀĭ":3173,"çļĦæķĪ":3174,"çĴ":3175,"çļĦæĮĳæĪĺ":3176,"è®²è¿°äºĨ":3177,"æĹ§":3178,"äº¿":3179,"æ¸ħæ´ģ":3180,"åĮºåĿĹ":3181,"æħ§":3182,"åĵģè´¨":3183,"å£®":3184,"çĪ±å¥½":3185,"çĶļèĩ³":3186,"ä»Ģéº¼":3187,"çģ¾å®³":3188,"å®ĥåı¯ä»¥":3189,"å®ģ":3190,"è½½":3191,"æĺŁæľŁ":3192,"èĽĭçĻ½è´¨":3193,"åĨĴéĻ©":3194,"èĥ½åĲ¦":3195,"ä¸ĥ":3196,"ä¸ºæĪĳ":3197,"ªæĺİ":3198,"åłĤ":3199,"ĠæĪĳ":3200,"å¯¿":3201,"è¡¨æ¼Ķ":3202,"å½Ĵç±»":3203,"åıĬæĹ¶":3204,"æĪ¿éĹ´":3205,"åĮĢ":3206,"å¤§æ°Ķ":3207,"è¿Ļæľ¬ä¹¦":3208,"çĻĮ":3209,"çĭ¬ç«ĭ":3210,"æĹĭ":3211,"ãĢĭãĢģãĢĬ":3212,"çļĦåİŁåĽł":3213,"å°¤åħ¶":3214,"é¼ł":3215,"âĢĶâĢĶ":3216,"çĶŁæ´»æĸ¹å¼ı":3217,"ç§įæĹı":3218,"æĢĿç»´":3219,"æĿĢ":3220,"æĥħåĨµä¸ĭ":3221,"çľĭçĶµå½±":3222,"èĤª":3223,"èĦĤèĤª":3224,"èĮĦ":3225,"é»ĺ":3226,"åħ·ä½ĵçļĦ":3227,"å¼ºè°ĥäºĨ":3228,"çĽ¸åºĶ":3229,"æ®Ĭ":3230,"«èĲ¨":3231,"é¢Ĺç³ĸæŀľ":3232,"åĵºä¹³åĬ¨çī©":3233,"éĻ¤äºĨ":3234,"æľĢå¥½çļĦ":3235,"å®ĥæĺ¯":3236,"å®¾":3237,"å¹¶æıĲä¾Ľ":3238,"æķı":3239,"å½¢å®¹è¯į":3240,"è¿ª":3241,"è®¤è¯Ĩ":3242,"è¯º":3243,"é»ĳæ´ŀ":3244,"å®¤æ°Ķä½ĵ":3245,"çĶŁæĪĲåķĨåĵģ":3246,"æ¦":3247,"åľ¨æľªæĿ¥":3248,"äºĭçī©":3249,"æĭĮ":3250,"çļĦèĥ½åĬĽ":3251,"èĳ±":3252,"èļ":3253,"ç§įç±»":3254,"æĺĵäºİ":3255,"åĢŁ":3256,"å¼ºçĥĪ":3257,"ä¼ĳéĹ²":3258,"äºĴåĬ¨":3259,"æ¶Īè´¹èĢħ":3260,"å½¼":3261,"æ»¡æĦı":3262,"äºĨä¸Ģç§į":3263,"æľĢæĸ°":3264,"å¼¹":3265,"çļĦç©":3266,"èĦı":3267,"éĢĢ":3268,"æİ¢è®¨äºĨ":3269,"ä¹Ŀ":3270,"è°ĵ":3271,"çļĦä¸»è¦ģè§ĤçĤ¹":3272,"è¹":3273,"æľīè¶£çļĦ":3274,"æ¼Ĥ":3275,"äº¤æĺĵ":3276,"æľĢå¥½":3277,"æĹ¢":3278,"å¸Ŀ":3279,"åįļçī©é¦Ĩ":3280,"æ¶Īæŀģ":3281,"æľĥ":3282,"åĴ¨":3283,"å·Ŀ":3284,"è¿ĺéľĢè¦ģ":3285,"æ¯ıä¸ªäººéĥ½":3286,"èĢĹ":3287,"å¹´é¾Ħ":3288,"ç¶":3289,"å®Įæķ´":3290,"çĸ«æĥħ":3291,"æİ¥ä¸ĭæĿ¥":3292,"éĢĴ":3293,"Ġæııè¿°":3294,"è´ŁéĿ¢å½±åĵį":3295,"å¤ļçļĦ":3296,"çļĦç³ĸ":3297,"è¾ħ":3298,"è¿ħ":3299,"å®£ä¼ł":3300,"çĶŁéķ¿":3301,"è§Ĩé¢ĳ":3302,"è®¨è®ºäºĨ":3303,"é¡¶":3304,"çĪ¶":3305,"æĪĳæĹłæ³ķ":3306,"èº«å¿ĥ":3307,"çªĹ":3308,"ä¹Łå¾Ī":3309,"çļĦç¬¬":3310,"æĢ§èĥ½":3311,"æ³ķåĽ½":3312,"çľĭèµ·æĿ¥":3313,"åħħåĪĨ":3314,"çĵľ":3315,"èģĬå¤©":3316,"è¯Ńæ³ķéĶĻè¯¯":3317,"åĴ¨è¯¢":3318,"ç»ķ":3319,"æķ¢":3320,"è§Ī":3321,"ç¿»è¯ĳæĪĲ":3322,"æĺŁçĲĥ":3323,"äºĨè®¸å¤ļ":3324,"çļĦéŁ³ä¹Ĳ":3325,"éķ¿æľŁ":3326,"ä½łä»¬":3327,"çļĦçİ¯å¢ĥ":3328,"ä¸Ĭä¸ĭæĸĩ":3329,"åĲ¬èµ·æĿ¥":3330,"ä¸Ģæľ¬":3331,"èģªæĺİ":3332,"æĢ»ç»Ł":3333,"æĥł":3334,"çĶŁæĹ¥":3335,"éĺ¶":3336,"å¿ĥæĥħ":3337,"çļĦçĹ":3338,"åĵ²":3339,"è§Ĥå¯Ł":3340,"çļĦç²":3341,"èī²å½©":3342,"çķª":3343,"éº»":3344,"åıĺå¾ĹæĽ´åĬł":3345,"é½":3346,"çļĦæīĢ":3347,"èį£":3348,"ï¼ŁâĢĿ":3349,"å¹´æĿ¥":3350,"ä¼łæĴŃ":3351,"è§£åĨ³éĹ®é¢ĺ":3352,"åĮºåĿĹéĵ¾":3353,"æİ¨åĩº":3354,"çļĦæ¯Ķ":3355,"çļĦçŁ¥":3356,"æĺİæĺ¾":3357,"ç§»åĬ¨":3358,"çļĦæķ°éĩı":3359,"éĻĨ":3360,"éĿŀå¸¸å¥½":3361,"ç»´æĬ¤":3362,"çľĭçľĭ":3363,"é¢ĦæĬ¥":3364,"åĳĪçİ°":3365,"èī¾":3366,"çļĦç¥":3367,"å¹¶æ²¡æľī":3368,"çº¯":3369,"ä½ĨæĪĳ":3370,"å¯¹çİ¯å¢ĥ":3371,"éķľ":3372,"å·¨å¤§":3373,"çĶ²":3374,"æĻºèĥ½å®¶å±ħ":3375,"å®¡":3376,"çĸ²":3377,"çĺ":3378,"çĽ´åĪ°":3379,"åį±éĻ©":3380,"æĳĦåħ¥":3381,"éĽ·":3382,"ï¼ļãĢĬ":3383,"çªģçĦ¶":3384,"çļĦè¡Įä¸º":3385,"åĲĮä¹īè¯į":3386,"èī¯å¥½":3387,"æĭ¼åĨĻ":3388,"çļĦæ±":3389,"è¸ª":3390,"è¿ĩåº¦":3391,"ç¾İåħĥ":3392,"åĴĮç¤¾ä¼ļ":3393,"åĮºåŁŁ":3394,"å¡«":3395,"ç¡¬":3396,"çļĦéĢīæĭ©":3397,"è§Ħå¾ĭ":3398,"æĤ¨éľĢè¦ģ":3399,"èĻ«":3400,"éĵ¶è¡Į":3401,"æŃ¦":3402,"åĨ¥æĥ³":3403,"çī¹æ®Ĭ":3404,"å±ĭ":3405,"éĴ¢":3406,"åĶĲ":3407,"åĽŀå®¶":3408,"çļĦçĥŃ":3409,"æį·":3410,"Ġ2":3411,"âĢ¦":3412,"æĶ¯ä»ĺ":3413,"çĽ®çļĦ":3414,"çļĦçĿ":3415,"çļĦç¼":3416,"éļıæĹ¶":3417,"å°ıçĭĹ":3418,"çĶ°":3419,"åīįæĻ¯":3420,"çĵ¶":3421,"åı¯çĪ±":3422,"èħ¿":3423,"å»ºè®¾":3424,"çĶŁæĪĲä¸Ģæ®µ":3425,"äººæ°ĳ":3426,"ä¸°å¯ĮçļĦ":3427,"å¤§èĩªçĦ¶":3428,"çĶ¨çļĦ":3429,"åĽŀæĶ¶":3430,"ä¸ĭåįĪ":3431,"åı¹":3432,"ä»ĸä»¬çļĦå¯¹è¯ĿåĨħå®¹":3433,"å¹ķ":3434,"çļĦæ¸©":3435,"æł·çļĦ":3436,"åĦ¿ç«¥":3437,"æµ®":3438,"æ·¡":3439,"åĪĨæĪĲ":3440,"éĩįå¤į":3441,"åŃĲçļĦ":3442,"éĹª":3443,"èĦ¸":3444,"åĪ°è¾¾":3445,"æĭĽ":3446,"åŁºåĽł":3447,"å¦ĤæŃ¤":3448,"åĪĽå»ºä¸Ģä¸ª":3449,"æĪĳæľĢè¿ĳ":3450,"ç¾İå¥½":3451,"ä»İæĸĩç«łä¸ŃæıĲåıĸ":3452,"æĦīå¿«":3453,"æľīæ²¡æľī":3454,"åĵģç§į":3455,"æģ©":3456,"æĶ¾åħ¥":3457,"çļĦç¨":3458,"çļĦæ¸¸":3459,"æ´Ľ":3460,"åı¯åĨįçĶŁ":3461,"æľīè®¸å¤ļ":3462,"çĶµåŃĲéĤ®ä»¶":3463,"æĸ¼":3464,"å¡ŀ":3465,"ç¯®çĲĥ":3466,"æ¶µ":3467,"ä»İæĸĩç«łä¸ŃæıĲåıĸåĩº":3468,"ç©¿çĿĢ":3469,"è¿Ŀ":3470,"æĪĳä»¬å°Ĩ":3471,"åľ¨äºİ":3472,"çī¹èī²":3473,"æīĺ":3474,"çļĦä¸Ģç§į":3475,"ç§ĭå¤©":3476,"èµ¢":3477,"çļĦæĥ³æ³ķ":3478,"è¢«è®¤ä¸º":3479,"çļĦæ¼":3480,"ĽåĽ´":3481,"çĶŁç´ł":3482,"æľĢå¤§":3483,"ä¿ĿæĬ¤çİ¯å¢ĥ":3484,"éŁ©":3485,"èĥŀ":3486,"è¿Ļé¡¹":3487,"åĵģå°Ŀ":3488,"çļĦæķĻ":3489,"åł¡":3490,"çļĦæīĢæľī":3491,"çļĦçĿ¡":3492,"é£ŁæĿĲ":3493,"çļĦåŁİå¸Ĥ":3494,"å¹³éĿ¢":3495,"çļĦåįķè¯į":3496,"äºĪ":3497,"æķ°åŃ¦é¢ĺ":3498,"éļ¾ä»¥":3499,"éĤ£ä¸ª":3500,"çī©ç§į":3501,"æııè¿°äºĨ":3502,"éģĩåĪ°":3503,"åįł":3504,"é£İæĻ¯":3505,"æĪĲå°±":3506,"æĻ´":3507,"è®°å¿Ĩ":3508,"æĪĲåĪĨ":3509,"åı¯ä»¥è®©":3510,"çļĦæŃĮ":3511,"çļĦç½":3512,"ä¸ĢæĿ¡":3513,"åįĸ":3514,"çĿĽ":3515,"å°º":3516,"è§Ħæ¨¡":3517,"çļĦæĦŁè§ī":3518,"æª":3519,"åĲ«æľī":3520,"æī¹":3521,"çĶŁæĪĲåķĨåĵģæĸĩæ¡Ī":3522,"å½Ĵç±»ä¸º":3523,"è¿Ļé¦ĸ":3524,"æĿ¥æºĲ":3525,"çĪĨ":3526,"å»ºè®®æĤ¨":3527,"éĢĥ":3528,"ä¸Ģé¡¹":3529,"ä»Ķ":3530,"è¿ĺåī©ä¸ĭ":3531,"å°½åı¯èĥ½":3532,"çļĦä½¿çĶ¨":3533,"ä¸»è¯Ń":3534,"çļĦæłĩé¢ĺ":3535,"æĹ©é¤Ĳ":3536,"é£ŀè¡Į":3537,"çĹĩçĬ¶":3538,"è¿Ľè¡ĮäºĨ":3539,"çļĦè¿ĲåĬ¨":3540,"çł´åĿı":3541,"çļĦä¸»è¦ģåĨħå®¹":3542,"ç¬¬ä¸ī":3543,"åĨľä¸ļ":3544,"æ·ĭ":3545,"åŃ¦ä¼ļ":3546,"å½¢è±¡":3547,"çļĦçĿ¡çľł":3548,"åĲī":3549,"æľīæķĪåľ°":3550,"ä¼Ĭ":3551,"çļĦç¤¾ä¼ļ":3552,"çļĦéľĢæ±Ĥ":3553,"ç¬¦åı·":3554,"ä»ĸäºº":3555,"é¦Ī":3556,"çŀ":3557,"èĤº":3558,"æŃĮæĽ²":3559,"Ġ3":3560,"åıĬåħ¶":3561,"æľŁå¾ħ":3562,"åį«çĶŁ":3563,"ä¾¿åĪ©":3564,"æīĢéľĢ":3565,"ç»Ļå®ļçļĦæĸĩæľ¬":3566,"èľĤ":3567,"æĪ´":3568,"èĭ¥":3569,"äºĶä¸ª":3570,"åī¯":3571,"åħħæ»¡äºĨ":3572,"é»Ħèī²":3573,"åģĩè®¾":3574,"åĴĮæĮĳæĪĺ":3575,"åĬ©æīĭ":3576,"æĦŁåħ´è¶£":3577,"å¼±":3578,"é£ŁçĶ¨":3579,"GP":3580,"åĬŀåħ¬":3581,"æĢķ":3582,"æ±¤å§Ĩ":3583,"å¸¸è§ģçļĦ":3584,"ç´¯":3585,"è¿Ľå±ķ":3586,"æĳĺ":3587,"æĪĺäºī":3588,"çļĦç©º":3589,"è§Ħå®ļ":3590,"åºĶè¯¥æĺ¯":3591,"åİŁçĲĨ":3592,"çľĭåĪ°äºĨ":3593,"çļĦæĶ¯":3594,"çĿ£":3595,"Ġå°Ĩ":3596,"çļĦæ·":3597,"åĸľå¥½":3598,"æ¡¥":3599,"ç¾İçļĦ":3600,"æ£Ģæµĭ":3601,"éĿŀå¸¸éĩįè¦ģ":3602,"çĻ¼":3603,"é¡¾å®¢":3604,"æĢ§åĪ«":3605,"æ²Ļæ»©":3606,"æĤ²":3607,"åº¦è¿ĩ":3608,"å°±ä¸ļ":3609,"åĵ¦":3610,"åıĺæĪĲ":3611,"éĩĮæľī":3612,"æģĴ":3613,"çļĦçŁ¥è¯Ĩ":3614,"éĩĮçļĦ":3615,"èĸĦ":3616,"ä¹ĭå¤ĸ":3617,"çļĦæĻºèĥ½":3618,"éĿ¢ç§¯":3619,"åĲ¹":3620,"ä¸ĵæ³¨":3621,"çļĦå®īåħ¨":3622,"è¯Ŀé¢ĺ":3623,"ç¼ºä¹ı":3624,"æĻĤ":3625,"å²¸":3626,"æ¸©å®¤æ°Ķä½ĵ":3627,"åĨħå¿ĥ":3628,"é¢Ħç®Ĺ":3629,"éĽĦ":3630,"ä»°":3631,"ä¸ĢæĿ¯":3632,"åŁĥ":3633,"åı¯éĿł":3634,"åı¯ä»¥æıĲé«ĺ":3635,"æĹ¶åħī":3636,"éĻĦè¿ĳ":3637,"åĲ¬è¯´":3638,"è£ħé¥°":3639,"åĴĮæ²»çĸĹ":3640,"æ¡£":3641,"å·®å¼Ĥ":3642,"é£ĺ":3643,"è§£éĩĬä¸Ģä¸ĭ":3644,"æ¸¯":3645,"è®¡ç®Ĺæľºç§ĳåŃ¦":3646,"çļĦæĮĩ":3647,"æĦīæĤ¦":3648,"èĬ±åĽŃ":3649,"èĩªä¿¡":3650,"çĸ«èĭĹ":3651,"è®¾æĸ½":3652,"å§ĵ":3653,"å®ŀæĸ½":3654,"æıĲéĨĴ":3655,"æĺ¯æĪĳ":3656,"åī§æĥħ":3657,"æµªè´¹":3658,"ç»ĦåĲĪ":3659,"ãĢģâĢľ":3660,"åĮĸåĴĮ":3661,"æīĢåľ¨":3662,"èİ«":3663,"è´¢åĬ¡":3664,"ä¸»è§Ĵ":3665,"çĶµè¯Ŀ":3666,"ä¸Ģéĥ¨":3667,"ä¸ªæľĭåıĭ":3668,"çļĦè¯Ńè¨Ģ":3669,"åĿĩåĮĢ":3670,"åĴĮä¸į":3671,"in":3672,"çĹħäºº":3673,"çļĦåģ¥åº·":3674,"æĺ¯ä¸ĢåĲį":3675,"åľ¨è¿Ļ":3676,"ä¸ŃæĢ§":3677,"éģĩåĪ°äºĨ":3678,"å¤§æķ°æį®":3679,"åĪĨæŀĲåĴĮ":3680,"èİ·å¾ĹäºĨ":3681,"æł¹æį®ç»Ļå®ļçļĦæĸĩæľ¬":3682,"åİ¨":3683,"åıįé¦Ī":3684,"éļĶ":3685,"åĴĮä¸Ģä¸ª":3686,"æıĲåĩºäºĨ":3687,"éħĴåºĹ":3688,"çĽĴ":3689,"ç»Ĩèĥŀ":3690,"æĪĲåĳĺ":3691,"çĪ¬":3692,"åĨįæ¬¡":3693,"ä¸ĢäºĽåħ³äºİ":3694,"å¿§":3695,"çĨĬçĮ«":3696,"æ°ı":3697,"ä»¥ä¸ĭæĺ¯ä¸Ģéģĵ":3698,"åħ¨éĿ¢":3699,"çĪ½":3700,"èĦī":3701,"æĶ¶éĽĨ":3702,"åĵ²åŃ¦":3703,"å¸¸å¸¸":3704,"ç¦ģ":3705,"èįīèİĵ":3706,"èµĸ":3707,"er":3708,"åı¯åĨįçĶŁèĥ½æºĲ":3709,"æµªæ¼«":3710,"èĳ¡èĲ":3711,"èĳ¡èĲĦ":3712,"ä¼Ł":3713,"ä¸įå¤ª":3714,"è§Ĵåº¦":3715,"åŃĹæ¯į":3716,"åħĶ":3717,"çĲĨè§£åĴĮ":3718,"çļĦé¢ľèī²":3719,"çķªèĮĦ":3720,"å¤ªéĺ³èĥ½":3721,"å°ıåŃ¦æķ°åŃ¦é¢ĺ":3722,"å¯¹äººç±»":3723,"æĪĲç»©":3724,"è¯·æıĲä¾Ľ":3725,"ä»¥ä¸ĭæĺ¯ä¸Ģéģĵå°ıåŃ¦æķ°åŃ¦é¢ĺ":3726,"ä¸Ĭè¿°":3727,"æĬ«èĲ¨":3728,"åº¦åģĩ":3729,"ä½łè®¤ä¸º":3730,"éĺ´":3731,"æķ¦":3732,"çı¾":3733,"ç¦»å¼Ģ":3734,"ãĢĭãĢĤ":3735,"çķĻä¸ĭ":3736,"å®¤åĨħ":3737,"çĤ¸":3738,"åĴĮåıĳå±ķ":3739,"æ¶īåıĬåĪ°":3740,"æįķ":3741,"äººåľ¨":3742,"åı¦ä¸Ģä¸ª":3743,"çŃīéĹ®é¢ĺ":3744,"æĻºæħ§":3745,"èĩªä¸»":3746,"éĥ¨éĹ¨":3747,"ç²Ĵ":3748,"çºłéĶĻ":3749,"çļĦæĦıä¹ī":3750,"ä¼łè¾¾":3751,"ç»´çĶŁç´ł":3752,"åħįçĸ«":3753,"èĤ¯å®ļ":3754,"çĶ·åŃ©":3755,"¹é¥":3756,"åĪĻæĺ¯":3757,"å¤§å°ı":3758,"å½¢çĬ¶":3759,"æĽ¾ç»ı":3760,"çī©çĲĨåŃ¦":3761,"å°Ĩå®ĥä»¬":3762,"æĲħ":3763,"éģŃ":3764,"èı²":3765,"¹é¥ª":3766,"è¯¢éĹ®":3767,"åĶ¯":3768,"æĤł":3769,"ä¹ĭå¤Ħ":3770,"çļĦæł¸":3771,"æĸ°åŀĭ":3772,"æĮĩå®ļ":3773,"åĲĪéĢĤçļĦ":3774,"æ¬§æ´²":3775,"èĮĥåĽ´åĨħ":3776,"æī°":3777,"çļĦç»ĵæŀľ":3778,"æ¸¸å®¢":3779,"ç´§å¼ł":3780,"ä¼¼ä¹İ":3781,"om":3782,"çļĩ":3783,"èĢĥè¯ķ":3784,"èıľåĵģ":3785,"åĪºæ¿Ģ":3786,"æŀģç«¯":3787,"ä¹±":3788,"çº·":3789,"ä¸ºæĤ¨æıĲä¾Ľ":3790,"è®¾ç½®":3791,"æĸ¹éĿ¢çļĦ":3792,"è·¨":3793,"åĭķ":3794,"çļĦç²¾":3795,"å¿ł":3796,"çļĦæ²»":3797,"å°±åı¯ä»¥":3798,"æī¬":3799,"25":3800,"åĨħéĥ¨":3801,"è·¯ä¸Ĭ":3802,"ç»¼åĲĪ":3803,"æĺ¥å¤©":3804,"ç´«":3805,"11":3806,"å°ıæĺİæīĭ":3807,"åĩºå¤Ħ":3808,"ä¸ŃçļĦåºĶçĶ¨":3809,"çļĦç³ĸæŀľ":3810,"çļĦæ¶":3811,"è¿Ķ":3812,"âĢĿãĢģâĢľ":3813,"åıĤè§Ĥ":3814,"ä¹Ķ":3815,"å¹´è½»çļĦ":3816,"æľīä¸Ģ":3817,"åħĪçĶŁ":3818,"æľīä¸ĢäºĽ":3819,"å¢Ļ":3820,"è¿ħéĢŁ":3821,"éĿŀå¸¸æĦŁè°¢":3822,"å°Ĩåľ¨":3823,"è¿Ļä¸¤ä¸ª":3824,"è´´":3825,"èĥ¡":3826,"çļĦæıĲ":3827,"åĪĨåŃĲ":3828,"è¿Ļå®¶é¤Ĳåİħ":3829,"ä¸ĭéĻį":3830,"èĬĤçº¦":3831,"å¯¹æĸ¹":3832,"çģŃ":3833,"æĻ¨":3834,"çļĦä¸Ģæ®µ":3835,"åħ´å¥ĭ":3836,"çļĦæ¼Ķ":3837,"æľīçĤ¹":3838,"çļĦæŀ":3839,"éĺ²æŃ¢":3840,"èĤ´":3841,"GPT":3842,"çĶµæ±ł":3843,"æĺ¯éĿŀå¸¸":3844,"è½¦è¾Ĩ":3845,"å·¨å¤§çļĦ":3846,"åħ·å¤ĩ":3847,"é¡ºåºı":3848,"åĬłä¸Ĭ":3849,"èĩªçĦ¶çģ¾å®³":3850,"è¦Ĩ":3851,"è¢ĸ":3852,"åĮ»éĻ¢":3853,"äº§çĶŁäºĨ":3854,"æĲħæĭĮ":3855,"è¯¥æĸĩæľ¬":3856,"åĵĪåĪ©":3857,"æ¬²":3858,"ç¾Ĭ":3859,"çŃīå¾ħ":3860,"è¯Ńæ°Ķ":3861,"å¤§çº¦":3862,"ä¸¾è¡Į":3863,"éĩįè§Ĩ":3864,"å±ħæ°ĳ":3865,"å¾Īæľī":3866,"å¼Ģå¤´":3867,"ä¼ĺè´¨":3868,"æĥ³æ³ķ":3869,"çļĦå°ıè¯´":3870,"æµ·å¹³éĿ¢":3871,"ä¸»è¦ģè§ĤçĤ¹":3872,"çĶŁæĪĲä¸Ģç¯ĩ":3873,"è®¤çŁ¥":3874,"èİī":3875,"æľīçļĦ":3876,"æīĵå¼Ģ":3877,"èĬ³":3878,"åį³ä½¿":3879,"åħħè¶³":3880,"èĤĮèĤī":3881,"èĴ¸":3882,"æĸĩç«łä¸ŃçļĦ":3883,"åħµ":3884,"çļĦæĬĢèĥ½":3885,"ä¾µ":3886,"éĢĤå½ĵçļĦ":3887,"æĪĲè¯Ńåĩºå¤Ħ":3888,"æī®":3889,"æĿ¥è§£åĨ³":3890,"å°ıæĿİ":3891,"æĹ¶åĪ»":3892,"æ½ľåľ¨":3893,"çļĦä¸Ģéĥ¨åĪĨ":3894,"åįģå¹´":3895,"çĮİ":3896,"ç»Łè®¡":3897,"è²Į":3898,"ä¸Ģåľº":3899,"æĮĩå¯¼":3900,"é»ĳèī²":3901,"å¿½":3902,"é¤Ĳé¦Ĩ":3903,"åŃĲéĩĮ":3904,"åį°è±¡":3905,"è¯·æıĲåıĸ":3906,"Jo":3907,"è¢«å¹¿æ³Ľ":3908,"åĩĨç¡®åľ°":3909,"hon":3910,"äººåı£":3911,"å½¼æŃ¤":3912,"å½±åĥı":3913,"åħĭæľį":3914,"åĪĨå¸ĥ":3915,"çİ¯å¢ĥæ±¡æŁĵ":3916,"çľŁå®ŀ":3917,"éĽĨä¸Ń":3918,"ä½¿çĶ¨äºĨ":3919,"è´¦":3920,"å¿ĥèĦı":3921,"çłĶåıĳ":3922,"an":3923,"çļĦæİªæĸ½":3924,"èĩªèº«":3925,"å¤ľæĻļ":3926,"æĪĳè§īå¾Ĺ":3927,"æİĴåºı":3928,"çļĦè®¾è®¡":3929,"å¤ļæķ°":3930,"çĶµå½±çļĦ":3931,"è¾ħåĬ©":3932,"ä¿¡ä»»":3933,"åĸ»":3934,"æİĪ":3935,"çļĦåŁºç¡Ģ":3936,"åĨ¬åŃ£":3937,"16":3938,"èĢĮæĺ¯":3939,"ãĢĭï¼Į":3940,"äºĨå¾Īå¤ļ":3941,"ç¨İ":3942,"åħ¬éĩĮ":3943,"åŁ¹åħ»":3944,"æĴ°":3945,"æľĢå¤§çļĦ":3946,"è¶ħå¸Ĥ":3947,"æĪĳæĺ¯":3948,"çº¤":3949,"ç¬¬ä¸Ģä¸ª":3950,"å¿ĥçĲĨåģ¥åº·":3951,"æľĢé«ĺ":3952,"ç®Ģæ´ģæĺİäºĨ":3953,"èĮ¨":3954,"çĲ´":3955,"æĬ½åıĸåĩº":3956,"æĽ´å¿«":3957,"åı¤èĢģ":3958,"å®£å¸ĥ":3959,"çļĦä»»åĬ¡":3960,"é¡µ":3961,"ä½ľä¸ºä¸Ģä¸ª":3962,"æĶ»åĩ»":3963,"äººä»¬çļĦ":3964,"ç¢İ":3965,"å¤§èĦĳ":3966,"ä¸¤ç§į":3967,"æĸĩæĺİ":3968,"çĽ¾":3969,"çļĦæ²»çĸĹ":3970,"åĴª":3971,"çļĦæł¸å¿ĥ":3972,"äººä½ĵ":3973,"å¯Ĩçłģ":3974,"ç£¨":3975,"æĤ¬":3976,"éĢ²":3977,"çļĦæľįåĬ¡":3978,"åĬ¨åĬĽ":3979,"è®¡ç®Ĺæľºè§Ĩè§ī":3980,"éĺ»":3981,"èį·":3982,"æĪĳæ²¡æľī":3983,"çļĦæ¦Ĥå¿µ":3984,"åĽ¾ä¹¦":3985,"è¿ĳå¹´æĿ¥":3986,"æĢ»çļĦ":3987,"æŀĦå»º":3988,"è§Ĩä¸º":3989,"å¹¶ä¸º":3990,"èĢį":3991,"åŃĲåĴĮ":3992,"èĤ¡ç¥¨":3993,"åħ¬æŃ£":3994,"å¾Īå¤§":3995,"çİ©å®¶":3996,"çļĦæ¢":3997,"çĶĺ":3998,"ä½ľå®¶":3999,"éĩįå¤§":4000,"æĪĸåħ¶ä»ĸ":4001,"éķ¿æĹ¶éĹ´":4002,"éĺµ":4003,"èĩ³åħ³":4004,"å¾ªçİ¯":4005,"åĩ½":4006,"æıĲç¤º":4007,"åıªèĥ½":4008,"åħ¬åĽŃéĩĮ":4009,"åı¯ä»¥å°Ĩ":4010,"æ²¿":4011,"åŃĺåĤ¨":4012,"ħåĬĽ":4013,"åĲįä¸º":4014,"è¿Ľè¡Įæĳĺè¦ģ":4015,"æĺİçĻ½":4016,"äº§åĵģçļĦ":4017,"é¢ĨåŁŁçļĦ":4018,"æĽ´å®¹æĺĵ":4019,"æĿİæĺİ":4020,"æ¢ħ":4021,"çļĦç½ĳ":4022,"æĽ¼":4023,"ä¸Ģåħ±æľī":4024,"çļĦæ¬":4025,"åĴĮå®īåħ¨":4026,"ç»ĵæĿŁ":4027,"ä½łè§īå¾Ĺ":4028,"è£Ļ":4029,"hn":4030,"éł":4031,"ä¸ĭéĽ¨":4032,"çļĦç¾İé£Ł":4033,"çĳŀ":4034,"èıĮ":4035,"å°½éĩı":4036,"æ¯ķ":4037,"çļĦåĬ¨çī©":4038,"èº«ä»½":4039,"æİĺ":4040,"åĨ³äºİ":4041,"çŁ¿":4042,"åıĸåĨ³äºİ":4043,"æł¹æį®ç»Ļå®ļ":4044,"çļĦåŁºæľ¬":4045,"è§Ĵèī²ä¿¡æģ¯":4046,"æĪĳä»¬çļĦçĶŁæ´»":4047,"çģ°":4048,"ä¿Ŀéļľ":4049,"æĭĵ":4050,"ä»·åĢ¼è§Ĥ":4051,"åıĳæĺİ":4052,"è±ª":4053,"çļĦçĶŁæ´»æĸ¹å¼ı":4054,"æ¼Ĥäº®":4055,"ç»ıçĲĨ":4056,"ä¸ºä½ł":4057,"åĽŀçŃĶè¿Ļä¸ªéĹ®é¢ĺ":4058,"åĴĮåºĶçĶ¨":4059,"000":4060,"çļĦäº§åĵģ":4061,"åĲĦåľ°":4062,"åĲĽ":4063,"è½¬åĮĸ":4064,"åķĨåĬ¡":4065,"å°ıçĮ«":4066,"æĢ»çļĦæĿ¥è¯´":4067,"èµ¢å¾Ĺ":4068,"è¯¸":4069,"èģĺ":4070,"çļĦæ½":4071,"çĬ¯ç½ª":4072,"è¯ģæį®":4073,"Ã·":4074,"çº¹":4075,"ä¼¯":4076,"æĳĨ":4077,"ç»´æĮģ":4078,"æĢİæł·":4079,"John":4080,"è¯ķåĽ¾":4081,"é²ģ":4082,"ç¼ºçĤ¹":4083,"æĥ³è±¡":4084,"æŁ¥è¯¢":4085,"åı¯ä»¥éĢīæĭ©":4086,"æĿİåĽĽ":4087,"ä¹ŁéľĢè¦ģ":4088,"Ġå¥½çļĦ":4089,"çļĦçľĭ":4090,"ä¸Ģä»¶":4091,"åĭĩæ°Ķ":4092,"å¤§éĩıçļĦ":4093,"çļĦåĲ«ä¹ī":4094,"èĻİ":4095,"ä»¥æĿ¥":4096,"ä»Ĭå¹´":4097,"æĻĴ":4098,"ä»İè¿Ļç¯ĩæĸĩç«łä¸ŃæıĲåıĸåĩº":4099,"æŁĶè½¯":4100,"æľīæķĪçļĦ":4101,"ä¼¦æķ¦":4102,"åŃĹç¬¦":4103,"æľªçŁ¥":4104,"å§Ķ":4105,"çĽĳæµĭ":4106,"è®¸å¤ļäºº":4107,"AIæĬĢæľ¯":4108,"åı¯ä»¥æł¹æį®":4109,"èİ±":4110,"åĴĮæľįåĬ¡":4111,"åľĪ":4112,"å¿ĥåĴĮ":4113,"åĪļåĪļ":4114,"ä»ª":4115,"ä½Ĩä»ĸ":4116,"éĢĬ":4117,"æĺ¯åħ³äºİ":4118,"ä¸ªæĢ§åĮĸ":4119,"ä¸İåħ¶ä»ĸ":4120,"æĺ¯æľĢ":4121,"åį§":4122,"åīª":4123,"é¸£":4124,"çłĶç©¶è¡¨æĺİ":4125,"æĥħæĦŁåĪĨæŀĲ":4126,"å¹½":4127,"çļĦåıĺåĮĸ":4128,"çİ©èĢį":4129,"åıĤèĢĥ":4130,"å¥½å¤Ħ":4131,"çļĦçĸ":4132,"ä¸ĵå®¶":4133,"èĢħçļĦ":4134,"èĢĮè¨Ģ":4135,"å°ıåįİ":4136,"ç¡®å®ŀ":4137,"è¿Ļç¯ĩæĸĩç«łä¸Ń":4138,"çĽĳçĿ£":4139,"çļ®èĤ¤":4140,"ä¼Ļ":4141,"ä¸įè¶³":4142,"çļĦæĥħåĨµä¸ĭ":4143,"ç¢į":4144,"éĻ·":4145,"æ°¸è¿ľ":4146,"å°±ä¼ļ":4147,"èĬĿ":4148,"çºłæŃ£":4149,"éĤĢ":4150,"è´Łè´£":4151,"å§¿":4152,"æĢª":4153,"çļĦåħ·ä½ĵ":4154,"çļĦæĶ¯æĮģ":4155,"æģĭ":4156,"éĩĮéĿ¢":4157,"éĩĩåıĸæİªæĸ½":4158,"æľīçĽĬ":4159,"åĲĮåŃ¦":4160,"åĴĮè°":4161,"æŀĿ":4162,"èħĲ":4163,"è¯ģæĺİ":4164,"åį°åº¦":4165,"å¤§åŀĭ":4166,"åĩ¡":4167,"åĩºè¡Į":4168,"è¯Ńåı¥":4169,"è°ĥåĳ³":4170,"æ¥ļ":4171,"çļĦè¿ĩç¨ĭ":4172,"å¹´è½»äºº":4173,"çļĦæĢģ":4174,"çİ©åħ·":4175,"è®¿éĹ®":4176,"ç®Ģçº¦":4177,"çļĦé£İæł¼":4178,"è°Ĭ":4179,"åĽłä¸ºå®ĥä»¬":4180,"äºĭæķħ":4181,"æŃ»äº¡":4182,"ä»¥ä¸ĭæ®µèĲ½":4183,"åı¯èĥ½å¯¼èĩ´":4184,"æĪĳæĥ³çŁ¥éģĵ":4185,"å®ŀçĶ¨":4186,"åĸľçĪ±":4187,"æª¬":4188,"æĽ´ä¸º":4189,"å±±å³°":4190,"æīĭæ®µ":4191,"äº§ä¸ļ":4192,"è§Ĥçľĭ":4193,"çļĦæĥħç»ª":4194,"åıĸå¾ĹäºĨ":4195,"ce":4196,"éĺĶ":4197,"è¡«":4198,"æĭĶ":4199,"è¿ĻæĦıåĳ³çĿĢ":4200,"æµģç¨ĭ":4201,"Ġ1":4202,"å°ıæĺİåĴĮ":4203,"ĽçĽ¾":4204,"æĳĩ":4205,"łæª¬":4206,"å±ı":4207,"æŁ¥çľĭ":4208,"çļĦæĹħæ¸¸":4209,"çļĦçĬ":4210,"å²©":4211,"è¿ĲçĶ¨":4212,"è¶³å¤ŁçļĦ":4213,"ä¸Ģæ®µæĸĩæľ¬":4214,"äººå£«":4215,"èĴľ":4216,"æ£ī":4217,"åľ°ä¸Ĭ":4218,"le":4219,"çĶ·åŃĲ":4220,"ä¿Ĺ":4221,"åŀĥåľ¾åĪĨç±»":4222,"è¢«ç§°ä¸º":4223,"æĦŁåĪ°éĿŀå¸¸":4224,"èĴĤ":4225,"èıľèĤ´":4226,"æŃ£å¼ı":4227,"åŁ¹è®Ń":4228,"å¤ļæł·æĢ§":4229,"æĪĳä¸į":4230,"æł¹æį®ä»¥ä¸ĭæĸĩæľ¬":4231,"åĭĩæķ¢":4232,"ç¼ĸåĨĻä¸Ģä¸ª":4233,"ç©Ĩ":4234,"åĢĴåħ¥":4235,"å¹´ä»£":4236,"åİĺ":4237,"éķ¿çļĦ":4238,"çĽ¸åıį":4239,"è¿Ļæ¬¡":4240,"å½±çīĩ":4241,"ä¸ģ":4242,"åħ³éĶ®åŃĹ":4243,"çļĦçĭĹ":4244,"âĢĿãĢĤ<|":4245,"æī®æ¼Ķ":4246,"ä¸»äººåħ¬":4247,"çļĦçľĭæ³ķ":4248,"æĬĢæľ¯åĴĮ":4249,"æ²Ļæĭī":4250,"åĪ©çĽĬ":4251,"åľºæīĢ":4252,"çĥ¹é¥ª":4253,"è£ģ":4254,"æĳ©":4255,"æĶ¶åħ¥":4256,"çĽŁ":4257,"çļĦæĬķ":4258,"å±ķå¼Ģ":4259,"ç§Ł":4260,"çļĦæ¸¸æĪı":4261,"\"<|":4262,"äº¤äºĴ":4263,"17":4264,"åĪĺ":4265,"æŃ£å¸¸":4266,"çģµæ´»":4267,"å¼ķåıĳ":4268,"æĪĲåĬŁçļĦ":4269,"ä¾Ŀèµĸ":4270,"ä¹Łä¸į":4271,"æłĩçŃ¾":4272,"æģ¢":4273,"ä¸Ńæľī":4274,"åĮ¹":4275,"å®ŀæĹ¶":4276,"æ¸ħæĸ°":4277,"ä¸Ģå¹´":4278,"çļĦæģ":4279,"å½ĵæĹ¶":4280,"éĩİçĶŁ":4281,"çļĦä¸ĢäºĽ":4282,"æĪĲæŀľ":4283,"èĢģæĿ¿":4284,"èģĮä½į":4285,"åĿĢ":4286,"æŁ¥æī¾":4287,"æĻºèĥ½æīĭæľº":4288,"å¤®":4289,"å¿ħè¦ģçļĦ":4290,"èŃ¦å¯Ł":4291,"åĴĮæ°´":4292,"æµ·å¹³éĿ¢ä¸Ĭåįĩ":4293,"æĺ¾èĳĹ":4294,"åľ¨ä¸ŃåĽ½":4295,"æİ¢éĻ©":4296,"çļĦçĽ®æłĩ":4297,"è¿«":4298,"å°¿":4299,"æ³¢çī¹":4300,"éĺ¶æ®µ":4301,"æĭħå¿ĥ":4302,"çļĦæ¢¦":4303,"äºĮæ°§åĮĸ":4304,"çļĦçī¹çĤ¹":4305,"ä»Ļ":4306,"çĸĳéĹ®":4307,"è·ĥ":4308,"çļĦæ³ķ":4309,"åİŁæĸĩ":4310,"åºĨç¥Ŀ":4311,"ä¸ªæ©ĻåŃĲ":4312,"ç«¹":4313,"è®¤çľŁ":4314,"å¢¨":4315,"ä¸įè¶ħè¿ĩ":4316,"çĭ®":4317,"åı¯ä»¥çĶ¨":4318,"ä»İè¿Ļç¯ĩæĸĩç«łä¸ŃæıĲåıĸ":4319,"æĺĵæĩĤ":4320,"æĹłéĻĲ":4321,"åĲĮæł·":4322,"æ·±è¿ľ":4323,"å·¥èīº":4324,"æ³ķè§Ħ":4325,"å¿ĥæĢģ":4326,"çļĦä¸ĸçķĮ":4327,"ä¹°äºĨ":4328,"çļĦçľŁ":4329,"åħ¶ä¸ŃåĮħæĭ¬":4330,"è°ĵè¯Ń":4331,"é¸¡èĤī":4332,"ä½ĵéĩį":4333,"å¯¼æ¼Ķ":4334,"è¦ģçĤ¹":4335,"åŁİå¸ĤçļĦ":4336,"èİİ":4337,"åŃ¦ç§ĳ":4338,"æĬĳ":4339,"å¤§å¤ļæķ°":4340,"æ¶µçĽĸ":4341,"å·¥ç¨ĭå¸Ī":4342,"èĬĤæĹ¥":4343,"åĢ¼å¾Ĺä¸Ģ":4344,"åı¯ä»¥èĢĥèĻĳ":4345,"è¢«è®¤ä¸ºæĺ¯":4346,"æī¾åĪ°äºĨ":4347,"éĩĬæĶ¾":4348,"æľĢéĩįè¦ģ":4349,"é²¸":4350,"ä¼¦çĲĨ":4351,"çļĦçĮ":4352,"éĥ½åľ¨":4353,"å¦Ĥæŀľä½łåĸľæ¬¢":4354,"åĲĥäºĨ":4355,"åĲĪçī©":4356,"éĹ®é¢ĺçļĦ":4357,"çŁ¥åĲį":4358,"åĴĮæĶ¯æĮģ":4359,"å¼Ģå¿ĥ":4360,"ä¸įæĸŃåľ°":4361,"ä¸Ģç³»åĪĹ":4362,"ç¡®è®¤":4363,"åģļå¥½":4364,"å¦Ĥä½ķåľ¨":4365,"æĺ¯åĲ¦æľī":4366,"æıŃ":4367,"çº¤ç»´":4368,"éľľ":4369,"åıĭè°Ĭ":4370,"çļĦæĽ":4371,"é¸Ń":4372,"æĭľ":4373,"æĥľ":4374,"çļĦæ¨":4375,"çĩķ":4376,"æĦŁæŁĵ":4377,"è´§å¸ģ":4378,"å°Ĩä»¥ä¸ĭæĸĩæľ¬":4379,"å°Ĩä»¥ä¸ĭåı¥åŃĲ":4380,"åĽ¾åĥıè¯ĨåĪ«":4381,"å¼Ł":4382,"å¾Ĵ":4383,"åľ¨è¿ĩåİ»":4384,"å°Ĭæķ¬":4385,"çĭĹçĭĹ":4386,"éģµå®Ī":4387,"çļĦæ¶Ī":4388,"é£Łè°±":4389,"å¦ĩ":4390,"æŁłæª¬":4391,"æķĪçİĩåĴĮ":4392,"çļĦä¸»æĹ¨":4393,"åĩ½æķ°":4394,"å¥½çľĭ":4395,"èĤł":4396,"äººç±»æ´»åĬ¨":4397,"è¶ĬæĿ¥è¶Ĭå¤ļ":4398,"æŃĮè¯į":4399,"çĽĳç®¡":4400,"æĽ¿ä»£":4401,"æİ¨æĸŃ":4402,"æĦıè¯ĨåĪ°":4403,"æ®ĸ":4404,"æĲº":4405,"60":4406,"ä¼ļå¯¼èĩ´":4407,"2021":4408,"èĤĸ":4409,"çļĦç¥ŀ":4410,"åľ¨å®¶éĩĮ":4411,"è½»è½»":4412,"æµ·è¾¹":4413,"æĦ¿æĦı":4414,"ç»ĻäºĨ":4415,"æĪĳä¹Ł":4416,"çļĦæŃ£":4417,"æĻ®éĢļ":4418,"éĨī":4419,"ä¹ĭéĹ´çļĦåħ³ç³»":4420,"å·²ç»ıæĪĲä¸º":4421,"æĶ¯éĵħç¬Ķ":4422,"åĽŀå¿Ĩ":4423,"ä½łåľ¨":4424,"è¯¥åħ¬åı¸":4425,"åĸľæ¬¢åĲĥ":4426,"éĥ½åı¯ä»¥":4427,"åĪł":4428,"çļĦæĳĦ":4429,"çļĦæ·±":4430,"éĻ¤ä»¥":4431,"èıľåįķ":4432,"æĹłäºº":4433,"æĿ¥å®ŀçİ°":4434,"è¿Ł":4435,"éĻª":4436,"çļĦæ½ľ":4437,"40":4438,"è·¯çº¿":4439,"æ´ª":4440,"éģİ":4441,"æııç»ĺ":4442,"æĽ´æľī":4443,"èģļä¼ļ":4444,"æĪĲä¸Ģä¸ª":4445,"äºĴçĽ¸":4446,"ä¸ĢåĢĭ":4447,"é¸Łç±»":4448,"çļĦçĪ±æĥħ":4449,"æİĴåĪĹ":4450,"èĴĻ":4451,"åľ°çĲĥçļĦ":4452,"æĮĤ":4453,"ç¤¼çī©":4454,"å°ıé¸Ł":4455,"æĤī":4456,"éģĵè·¯":4457,"åĴĮè°Ĳ":4458,"äºĮæ°§åĮĸç¢³":4459,"çļĦæİĴ":4460,"æ¡ĥ":4461,"æĽ´æĸ°":4462,"ä¿ĿéĻ©":4463,"æľºåĪ¶":4464,"è´¸":4465,"åĢį":4466,"åĪĹä¸¾":4467,"åĭĴ":4468,"ä½łä¼ļ":4469,"å¯¹åħ¶":4470,"ä»ĸæĥ³":4471,"ä»ĭç»įä¸Ģä¸ĭ":4472,"èĭ±æĸĩ":4473,"çĻ½èī²":4474,"äºĭä¸ļ":4475,"çļĦä¸į":4476,"åį«æĺŁ":4477,"å®ĹæķĻ":4478,"èĬĴ":4479,"è¯»ä¹¦":4480,"åķĨåºĹ":4481,"ä¿ĿæĮģåģ¥åº·":4482,"ä¸ľäº¬":4483,"è¯·çĶ¨":4484,"ä»¿ä½Ľ":4485,"èĥ½åĬĽåĴĮ":4486,"æł¹æį®è¾ĵåħ¥":4487,"æģ¢å¤į":4488,"åĪĢ":4489,"çİĩåĴĮ":4490,"çº½çº¦å¸Ĥ":4491,"ä¸Ģå¼ł":4492,"æ·ĩ":4493,"ä¸ĢçĽ´åľ¨":4494,"\"ï¼Į":4495,"è®©äººä»¬":4496,"èĻļæĭŁçİ°å®ŀ":4497,"çļĦæŁ":4498,"éĿ¢æĸĻ":4499,"çļĦé«ĺ":4500,"çļĦæŃ¥":4501,"çļĦå¤ĸ":4502,"åĽ¾ä¹¦é¦Ĩ":4503,"å°½åĬĽ":4504,"åĲĮäºĭ":4505,"çŃĶæ¡Īæĺ¯":4506,"èĥ¸":4507,"ä¼¤å®³":4508,"é¢ĨåŁŁä¸Ń":4509,"è¿Ĳè¡Į":4510,"ç§įæ¤į":4511,"æĻ®éģį":4512,"å°ıæľĭåıĭ":4513,"å¦Īå¦Ī":4514,"æłĩå¿Ĺ":4515,"æĬĵ":4516,"éªĮè¯ģ":4517,"è¯´è¯Ŀ":4518,"çĭĤ":4519,"åĵªç§į":4520,"ä»İä»¥ä¸ĭ":4521,"èĢĢ":4522,"åıĭå¥½":4523,"å£¤":4524,"æľºåĻ¨åŃ¦ä¹łç®Ĺæ³ķ":4525,"ä»ĸä»¬åľ¨":4526,"å¾Īå¥½çļĦ":4527,"çļĦåħ³ç³»":4528,"æĪĳéĿŀå¸¸":4529,"çĬ¹":4530,"æĺ¯å¤ļå°ĳ":4531,"åħīçº¿":4532,"åĨ°æ·ĩ":4533,"åĪ«äºº":4534,"éĺĲ":4535,"åĬĽåŃ¦":4536,"å°ıæĺİå®¶":4537,"äººå·¥æĻºèĥ½çļĦåıĳå±ķ":4538,"çĶ·æĢ§":4539,"æĻºèĥ½åĮĸ":4540,"åľ°éľĩ":4541,"åĪĽä¸ļ":4542,"å°±åĥı":4543,"ä¸¦":4544,"åĨ°æ·ĩæ·ĭ":4545,"ä¼ĺæĥł":4546,"æ¯ĶèµĽä¸Ń":4547,"ç¾¤ä½ĵ":4548,"Tom":4549,"æĺ¯ä¸į":4550,"åıªè¦ģ":4551,"æĸ°éĹ»æĸĩç«ł":4552,"çļĦæľºä¼ļ":4553,"èĥľåĪ©":4554,"åħļ":4555,"æħ¢æħ¢":4556,"ä¾ĽåºĶ":4557,"ä¸²":4558,"ä½¿çĶ¨çļĦ":4559,"åħ¬ä¼Ĺ":4560,"çĥŃæĥħ":4561,"çĶŁæĪĲæĳĺè¦ģ":4562,"æ¦Ĥè¿°":4563,"æĽ´é«ĺ":4564,"å¼ķåĬĽ":4565,"åĬłéĢŁ":4566,"ä¸§":4567,"æ¢¦æĥ³":4568,"åįľ":4569,"æĺ¯åĽłä¸º":4570,"åĴĮæľĭåıĭ":4571,"åĪĩæĪĲ":4572,"ï¼ļ\"":4573,"å®¿":4574,"æĮĩçļĦæĺ¯":4575,"åĪ·":4576,"å®Įç¾İ":4577,"å°ĺ":4578,"æĺ¯å¦Ĥä½ķ":4579,"æ³Ĭ":4580,"å¼Ĺ":4581,"è°ĥèĬĤ":4582,"é£ŀæľº":4583,"è®²è¿°äºĨä¸Ģä¸ª":4584,"çļĦæ¯ı":4585,"åĭ¤":4586,"å«Į":4587,"æľĢåĸľæ¬¢çļĦ":4588,"åľ¨è¿ĻéĩĮ":4589,"è¿Ļåıª":4590,"åħ¶å®ŀ":4591,"çļĦçĻ":4592,"æĿĥåĪ©":4593,"ä¸Ĭæĸĩ":4594,"ç¨®":4595,"çĽĹ":4596,"çŁĽçĽ¾":4597,"è¯ķè¯ķ":4598,"çļĦè¯ĹæŃĮ":4599,"ä¾§":4600,"èº«ä½ĵåĴĮ":4601,"ä¿¡ä»°":4602,"çĽ®çļĦæĺ¯":4603,"çļĦæ£":4604,"è¿Ļæĺ¯ä¸Ģç¯ĩ":4605,"24":4606,"æī©å¤§":4607,"çļĦç¼ĸ":4608,"å¯¸":4609,"ç®Ģä»ĭ":4610,"ãĢĤ'":4611,"æĿİåįİ":4612,"åĴĮå·¥ä½ľ":4613,"åĬĽäºİ":4614,"æı´":4615,"å¹¶å°Ĩåħ¶":4616,"å§ĵåĲį":4617,"æ¶Ĥ":4618,"å°ĳå¹´":4619,"è¿Ļå°Ĩ":4620,"ä¸Ģçīĩ":4621,"å¹¶å°Ĩ":4622,"å¦Ĥæŀľä½łæĥ³":4623,"ä¸įæĸŃåıĳå±ķ":4624,"å¹¿æ³ĽåºĶçĶ¨":4625,"éĩĩåıĸè¡ĮåĬ¨":4626,"è¿Ļæł·çļĦ":4627,"çļĦçľ¼":4628,"14":4629,"çļĦä½įç½®":4630,"å®¶åħ·":4631,"è¯ĨåĪ«åĩº":4632,"çļĦè´¨éĩı":4633,"ä½łå¯¹":4634,"æĦıå¤§åĪ©éĿ¢":4635,"é¬":4636,"æ®ĭ":4637,"è½¨":4638,"æĵİ":4639,"å¤©çĦ¶":4640,"ä¸įéľĢè¦ģ":4641,"å¥Ķ":4642,"åĲįè¯įçŁŃè¯Ń":4643,"æīĭæľ¯":4644,"æľĢæĸ°çļĦ":4645,"äº¤éĢļå·¥åħ·":4646,"çĤ¹ç¬¦åı·":4647,"æĹģ":4648,"å¯Įæľī":4649,"è¿Ļæ®µæĸĩåŃĹ":4650,"åĴĮå¹³":4651,"å¹¶ä¸įæĺ¯":4652,"åıĸä»£":4653,"çīĽèĤī":4654,"æĥħæĦŁåĪĨç±»":4655,"ãĢĮ":4656,"ä»¥ä¸ĭéĹ®é¢ĺ":4657,"ä¿®æŃ£":4658,"å®Ŀå®Ŀ":4659,"åİŁåĪĻ":4660,"æī£":4661,"æĶ¾å¼ĥ":4662,"æ·±åĳ¼åĲ¸":4663,"æĺ¯æĪĳä»¬":4664,"è´«":4665,"å¯¹è±¡":4666,"é»ĳæļĹ":4667,"è§ĦèĮĥ":4668,"æ¯«":4669,"è¿ĺèĥ½":4670,"NA":4671,"ãĢį":4672,"å°½å¿«":4673,"å¹¶ç»Ļåĩº":4674,"æĶ¹ä¸º":4675,"li":4676,"è½¬æį¢ä¸º":4677,"èĺ":4678,"ä½łæľīä»Ģä¹Ī":4679,"æıĲä¾ĽçļĦ":4680,"å¯¿åĳ½":4681,"åı£è¯Ń":4682,"åħĶåŃĲ":4683,"æĢİä¹Īæł·":4684,"æĪĳå°Ĩ":4685,"åıĳåĩº":4686,"åºĦ":4687,"åĩĨç¡®æĢ§":4688,"çļĦæ°´æŀľ":4689,"æĽ´å¥½åľ°çĲĨè§£":4690,"å¯Ĥ":4691,"ä¹Į":4692,"ä¹Łå°±æĺ¯":4693,"æĺ¯ä¸ª":4694,"éħª":4695,"æ¶ĪèĢĹ":4696,"æĤ¨å¥½":4697,"Ġ5":4698,"æİ¥çĿĢ":4699,"ä¸ĢåĪĩ":4700,"çĥ¦":4701,"æĹ¥å¸¸çĶŁæ´»":4702,"åľºåĲĪ":4703,"æĿ¥æıĲé«ĺ":4704,"åģıå¥½":4705,"åľ¨æŃ¤":4706,"ç¥ŀç§ĺçļĦ":4707,"å½ĵä»Ĭ":4708,"ä¸¥æł¼":4709,"å¼ķæĵİ":4710,"æ¸ħåįķ":4711,"ç¬¬äºĮä¸ª":4712,"ç±»åŀĭçļĦ":4713,"åĽ½åĨħ":4714,"ä¸īç§į":4715,"åĮºåĪ«":4716,"ï¼ļ'":4717,"æł¹æį®æīĢ":4718,"å¼ºå¤§":4719,"ç½ļ":4720,"è¯·å¯¹":4721,"çĮª":4722,"æĿ¥çľĭ":4723,"æııè¿°ä¸Ģä¸ĭ":4724,"èĬĤå¥ı":4725,"çīĪæľ¬":4726,"æİ¨èįĲä¸ĢäºĽ":4727,"ä¼¸":4728,"åİĤ":4729,"çŃīæĸ¹å¼ı":4730,"åİĭåĬĽåĴĮ":4731,"è´¹çĶ¨":4732,"çĩĥæĸĻ":4733,"æıĴ":4734,"åĴĮåĪĨæŀĲ":4735,"æµ¸":4736,"æĪ·å¤ĸæ´»åĬ¨":4737,"ä¼łéĢĴ":4738,"å°¼åħĭ":4739,"æĦŁåĴĮ":4740,"åĲ¬åĪ°":4741,"å¯¹æīĭ":4742,"è¿Ļä½į":4743,"èį¡":4744,"çļĦæĢģåº¦":4745,"åĲİçļĦ":4746,"æĬµ":4747,"çĶµåĬ¨":4748,"èĬ±è´¹":4749,"æĢģåº¦":4750,"åıĺéĿ©":4751,"å°¤åħ¶æĺ¯":4752,"è¦ģæ³¨æĦı":4753,"åŃĶ":4754,"å£ģ":4755,"å¹¿æ³ĽçļĦåºĶçĶ¨":4756,"èĬ¬":4757,"å¤±åİ»":4758,"æ¨¡ä»¿":4759,"è¯ĦåĪĨ":4760,"çļĦåŃ¦ä¹ł":4761,"åĽĽä¸ª":4762,"åı¯èĥ½æĢ§":4763,"æĸ°äº§åĵģ":4764,"åģ·":4765,"åı«åģļ":4766,"é«Ķ":4767,"åı¯ä»¥æĺ¯":4768,"è¾ŀ":4769,"æ»¤":4770,"å¥½äºĨ":4771,"åĮĸåĲĪçī©":4772,"äºİæĺ¯":4773,"ä¸ĢçĤ¹":4774,"è´¯":4775,"çľ¼çĿĽ":4776,"13":4777,"éĻ¤æŃ¤":4778,"ç¢Ĺ":4779,"éĶĢåĶ®é¢Ŀ":4780,"æŀĦæĪĲ":4781,"åİ¿":4782,"å°Ĩä¸ĭéĿ¢":4783,"æľīæĹ¶":4784,"åĲĪåĲĮ":4785,"åłµ":4786,"é³":4787,"äººå·¥æĻºèĥ½çļĦåºĶçĶ¨":4788,"æľºåĻ¨ç¿»è¯ĳ":4789,"èĪĩ":4790,"æ°´åĴĮ":4791,"éļıæľº":4792,"é¦Ļæ¸¯":4793,"é©±":4794,"çļĦæĸĩåĮĸ":4795,"åĶ¯ä¸Ģ":4796,"åľŁå£¤":4797,"æ°´ä¸Ń":4798,"èĩ´åĬĽäºİ":4799,"åıĳå±ķçļĦ":4800,"ä¸ºä¸Ģä¸ª":4801,"é¦¨":4802,"ä¿¡åı·":4803,"å¥¥è¿Ĳ":4804,"æ¯ıæ¬¡":4805,"è¯Ńæ³ķåĴĮ":4806,"åĢ¾åĲĳ":4807,"æĺ¯ä¸Ģé¡¹":4808,"æĻ¯è§Ĥ":4809,"éĤĢè¯·":4810,"å®ģéĿĻ":4811,"éľĢè¦ģæ³¨æĦıçļĦæĺ¯":4812,"å¿ĥçģµ":4813,"çļĦç¾İå¥½":4814,"æĺĵäºİçĲĨè§£":4815,"æĸĩä¸Ń":4816,"ç»ĻæĪĳä¸Ģä¸ª":4817,"å¯¹æĸĩæľ¬":4818,"èĭ±éĽĦ":4819,"æķ´ä½ĵ":4820,"éĩįåĨĻä»¥ä¸ĭåı¥åŃĲ":4821,"éĻ¤æŃ¤ä¹ĭå¤ĸ":4822,"æĵħ":4823,"è±¡å¾ģ":4824,"èģĶåĲĪ":4825,"åĴĮæķ°æį®":4826,"yt":4827,"æĮĳ":4828,"å®ĮåĸĦ":4829,"æĢİä¹ĪåĬŀ":4830,"éĿŀå¸¸æľī":4831,"æ¨¡æĭŁäººç±»":4832,"å¦¹":4833,"æĪĲç«ĭ":4834,"çİ°åľ¨è¯·ä½ł":4835,"èµĦæĸĻ":4836,"èµĭ":4837,"åı¦ä¸Ģ":4838,"è®¯":4839,"ãĢĤãĢĬ":4840,"è¿ĻäºĽéĹ®é¢ĺ":4841,"å¤±è´¥":4842,"è¿Ļåº§":4843,"å¾Īéļ¾":4844,"æĮĸ":4845,"çļĦæµģ":4846,"èħ»":4847,"éĸĭ":4848,"å¸¦æĿ¥çļĦ":4849,"å¾·åĽ½":4850,"åĴĮé«ĺ":4851,"ç»Ĵ":4852,"æ¤ħ":4853,"å¸Ń":4854,"åĴĮæĬĢæľ¯":4855,"é¢Ħè®¡":4856,"é½Ĳ":4857,"èĬĤçĽ®":4858,"åĮĹæŀģ":4859,"æĩī":4860,"å¸½":4861,"çģ«æĺŁ":4862,"å½ĵä½ł":4863,"ä¸¾åĬŀ":4864,"æľīäºº":4865,"å®īè£ħ":4866,"çļĦæ¨¡":4867,"å¸®æĪĳæĥ³":4868,"çļĦæĹ¥":4869,"çļĦç¨ĭ":4870,"çĻĮçĹĩ":4871,"åı¯èĥ½ä¼ļå¯¼èĩ´":4872,"æ¼Ķè®²":4873,"åıįæĺł":4874,"ä¸¹":4875,"å¾Ģå¾Ģ":4876,"å¤©ä½ĵ":4877,"æ´ĭèĳ±":4878,"è¹Ī":4879,"ç¤¾ä¼ļçļĦ":4880,"éĸĵ":4881,"è¯¥æĸĩç«ł":4882,"èµĦéĩĳ":4883,"ä¾¿æį·":4884,"çļĦæĥħèĬĤ":4885,"çļĦæĦŁåıĹ":4886,"è¯·ç»ŃåĨĻ":4887,"ä¼ļå¯¹":4888,"çļĦæĬĢå·§":4889,"å¹³æĸ¹":4890,"éŁµ":4891,"æĴŀ":4892,"è¡¬":4893,"æīĢè¿°":4894,"çī¹åĪ«æĺ¯":4895,"ython":4896,"æ¯ıå¹´":4897,"äººå¿ĥ":4898,"ä¸Ńç«ĭ":4899,"ç²¾åĩĨ":4900,"è¦ĨçĽĸ":4901,"ç£ģ":4902,"Ŀåįľ":4903,"ä¸Ĭæľī":4904,"å¹¶è¿Ľè¡Į":4905,"çļĦè¿ĩç¨ĭä¸Ń":4906,"æĭ¼åĨĻéĶĻè¯¯":4907,"æľĪçĲĥ":4908,"æ¼ł":4909,"åı¯ä»¥å°Ŀè¯ķ":4910,"ä¼Ļä¼´":4911,"åħĪè¿Ľ":4912,"è¿ĺæľīåħ¶ä»ĸ":4913,"éĢļå¸¸æĺ¯":4914,"æľīæľº":4915,"äºĨä»Ģä¹Ī":4916,"çĪ¸":4917,"æ¯ıäºº":4918,"æĴĴ":4919,"çļĦæĶ¹":4920,"åº¦çļĦ":4921,"åŃ¦æľ¯":4922,"å®ļåĪ¶":4923,"æłĩè®°":4924,"ç»ĻæĪĳä¸ĢäºĽ":4925,"åĩĿ":4926,"åħ±äº«":4927,"è¿Ļéģĵ":4928,"åĩºçĶŁ":4929,"ç»ĻäºĪ":4930,"åı¯ä»¥å¸®åĬ©æĪĳä»¬":4931,"åªļ":4932,"éĿŀæ³ķ":4933,"è¿Ļåľº":4934,"åĿĩè¡¡":4935,"Python":4936,"èĿ¶":4937,"éŃħåĬĽ":4938,"ç§ĳæĬĢçļĦ":4939,"äººå·¥æĻºèĥ½åı¯ä»¥":4940,"åħ¬å¹³":4941,"èķ´":4942,"çªģåĩº":4943,"çļĦæĳĦåħ¥":4944,"ä¼ļåľ¨":4945,"åģ¶":4946,"éĻ¤æ³ķ":4947,"ç¶ĵ":4948,"éĹľ":4949,"æĸĩç«łåĨħå®¹":4950,"äººå·¥æĻºèĥ½åľ¨åĮ»çĸĹé¢ĨåŁŁ":4951,"éĿŀæ´²":4952,"è¡¨çİ°åĩº":4953,"ä¸Ńå¤®":4954,"æ»´":4955,"æĪĳå·²ç»ı":4956,"çļĦæķĪæŀľ":4957,"ç¾½":4958,"ç½ĳä¸Ĭ":4959,"åĴĮæĥħæĦŁ":4960,"åĩ¯":4961,"å°ıçİĭ":4962,"æļĤ":4963,"æĭĤ":4964,"å¤ĸå¥Ĺ":4965,"æīĭè¡¨":4966,"åıĹæ¬¢è¿İçļĦ":4967,"å¼ķäºº":4968,"ä¼łç»ŁçļĦ":4969,"å°ıçļĦ":4970,"è¯·åĽŀçŃĶ":4971,"ç»Īäºİ":4972,"è¯·ç»ŃåĨĻä»ĸä»¬çļĦå¯¹è¯ĿåĨħå®¹":4973,"åĪłéĻ¤":4974,"ç¼ĺ":4975,"åĩłå¹´":4976,"æĺ¯äººç±»":4977,"çļĦä»·æł¼":4978,"çļĦç¤¾äº¤":4979,"æĪĳå¸ĮæľĽ":4980,"ä¿ĿçķĻ":4981,"çĲĥåĳĺ":4982,"èįĴ":4983,"æĪĳå¯¹":4984,"æııè¿°ä¸Ģä¸ª":4985,"éļľç¢į":4986,"çļĦæ¸ħ":4987,"åģ¥åº·åĴĮ":4988,"çļĦé¦ĸ":4989,"çļĦæ¢¦æĥ³":4990,"è¿ĶåĽŀ":4991,"å¸Ĥä¸Ńå¿ĥ":4992,"çģ«è½¦":4993,"èĪŀè¹Ī":4994,"ç»ĻæĤ¨":4995,"è¡ĵ":4996,"çļĦä¹¦":4997,"ä¸įåĪ°":4998,"å¤ıæĹ¥":4999,"æ¶Īæģ¯":5000,"çİ¯ä¿ĿæĦıè¯Ĩ":5001,"éĢĹ":5002,"å±±èĦī":5003,"ç©·":5004,"éĥ½èĥ½":5005,"AIè¯Ńè¨Ģæ¨¡åŀĭ":5006,"æĪĳè¦ģ":5007,"è¿Ļä¹Ī":5008,"æĽ´å¥½åľ°äºĨè§£":5009,"çĮ«åĴª":5010,"éĩįéĩı":5011,"å¿łè¯ļ":5012,"GPTæ¨¡åŀĭ":5013,"æĪĳåĢĳ":5014,"ç½©":5015,"å¤ªç©ºæİ¢ç´¢":5016,"éģĹäº§":5017,"åįķä½į":5018,"ä¸¤ä¸ªäºº":5019,"æ³¨æĦıåĬĽ":5020,"åİ»å¹´":5021,"ä¸įå¥½":5022,"åĪĨæĶ¯":5023,"èıĩ":5024,"æľºéģĩ":5025,"çĥŃéĹ¨":5026,"æ¼ı":5027,"æĿĲè´¨":5028,"ä¹Łåľ¨":5029,"åĲ¸æĶ¶":5030,"è°¨":5031,"éĢıæĺİ":5032,"åİŁå§ĭæĸĩæľ¬":5033,"æµĭéĩı":5034,"è´¸æĺĵ":5035,"æĬķåħ¥":5036,"é¥®é£Łä¹łæĥ¯":5037,"å®¶æĹı":5038,"æĢĸ":5039,"çļĦçĬ¶":5040,"æľįè£ħ":5041,"éĶģ":5042,"å¾ĭå¸Ī":5043,"èŀįåĲĪ":5044,"æĺ¯éĢļè¿ĩ":5045,"çļĦå¥½å¤Ħ":5046,"è¿Ļæĺ¯åĽłä¸º":5047,"ä¸įåĨį":5048,"åŃ©åŃĲä»¬":5049,"è¯ĬæĸŃåĴĮæ²»çĸĹ":5050,"æĸĩä»¶":5051,"å¿ĥçĲĨåŃ¦":5052,"æīĵéĢł":5053,"å½¢çļĦ":5054,"éĩĳå±ŀ":5055,"äºļæ´²":5056,"æľīéĻĲ":5057,"æĶ¾æĿ¾èº«å¿ĥ":5058,"ä½Ĩå®ĥ":5059,"åĴĮå»ºè®®":5060,"æµħ":5061,"åıĮæĸ¹":5062,"é¢Ī":5063,"çĽ¸æ¯Ķ":5064,"æľīäºĽäºº":5065,"çľŁæĺ¯":5066,"ä»¥æıĲé«ĺ":5067,"è£Ĥ":5068,"çļĦè¯Ŀé¢ĺ":5069,"èĥ½å¤Łå¸®åĬ©":5070,"æĦıè§ģ":5071,"ä»¥ä¸ĭæĸĩç«ł":5072,"æ½®æµģ":5073,"åĪ¶åĵģ":5074,"åĲĪå¹¶":5075,"è¼":5076,"ç¨į":5077,"æıĲä¾ĽæĽ´":5078,"å®īéĿĻ":5079,"çº¢èī²çļĦ":5080,"ç¨¿":5081,"æ¯Ķåĸ»":5082,"èĥ½ä¸įèĥ½":5083,"ä¸įä»ħä»ħ":5084,"ä»ģ":5085,"çļĦç¾İä¸½":5086,"å¹¶è§£éĩĬ":5087,"æħİ":5088,"ä¸Ģéģĵ":5089,"å¤©æ°Ķé¢ĦæĬ¥":5090,"90":5091,"çĶ»éĿ¢":5092,"æľĢå¤ļ":5093,"èĦĨ":5094,"åıįä¹īè¯į":5095,"éĵº":5096,"å¨ľ":5097,"åĹ¯":5098,"éĿ¢è¯ķ":5099,"ç©¿è¶Ĭ":5100,"å¤§åľ°":5101,"æĸ¯åĿ¦":5102,"Ġäººå·¥æĻºèĥ½":5103,"æľ¬èº«":5104,"åį¢":5105,"æł¸å¿ĥ":5106,"åĽŀåĪ°":5107,"æİ¥è§¦":5108,"èī³":5109,"åĪ©æ¶¦":5110,"çħİ":5111,"åľĭ":5112,"æķ°ä¸º":5113,"éī":5114,"å®ŀéĻħä¸Ĭ":5115,"ä¸īè§Ĵ":5116,"çĪ±çļĦ":5117,"çĥŃéĩı":5118,"ä¹Ĳè¶£":5119,"é¹ħ":5120,"éĺĲè¿°":5121,"æĺ¯ç¾İåĽ½":5122,"åħ¨åĽ½":5123,"åĩĨç¡®çļĦ":5124,"åĨłåĨĽ":5125,"èīºæľ¯å®¶":5126,"å°Ĭæķ¬çļĦ":5127,"åľ°ä½į":5128,"or":5129,"çĶŁåĬ¨":5130,"åįıä½ľ":5131,"åİĨåı²ä¸Ĭ":5132,"èµ·æºĲ":5133,"ãĢĤâĢľ":5134,"æĿ¥çļĦ":5135,"å°¼äºļ":5136,"åĨ²çªģ":5137,"çİ»":5138,"æ¶¯":5139,"åįĹæŀģ":5140,"æķ°æį®çļĦ":5141,"ç²¾å½©":5142,"èĩªçĦ¶çİ¯å¢ĥ":5143,"éĿ©åĳ½":5144,"éħįæĸĻ":5145,"éªĳèĩªè¡Įè½¦":5146,"çĶ³è¯·":5147,"å¿ĥä¸Ń":5148,"çī¹æĢ§":5149,"çŃīæĬĢæľ¯":5150,"éļ¾å¿ĺ":5151,"æĸĩæ¡ĪçĶŁæĪĲ":5152,"æ¬º":5153,"è¯Ńä¹ī":5154,"å¸¦æľī":5155,"ä¸Ģå®ļçļĦ":5156,"è½¬åĮĸä¸º":5157,"æĿ¥å¸®åĬ©":5158,"æ³ī":5159,"è¡¨æł¼":5160,"å¾ĪæĬ±æŃī":5161,"çļĦæķĻèĤ²":5162,"ä½ĵç³»":5163,"å½ĵåľ°çļĦ":5164,"æīĵç®Ĺ":5165,"å¼Ģå±ķ":5166,"å°ıåŀĭ":5167,"åħ¬å¼ı":5168,"ä½©":5169,"æĹħç¨ĭ":5170,"æ°ĳæĹı":5171,"è¿Ļè¡¨æĺİ":5172,"çļĦæĬķèµĦ":5173,"æĹ¥å¸¸çĶŁæ´»ä¸Ń":5174,"é¢Ħè®¢":5175,"æĪĳæİ¨èįĲ":5176,"æľīä»»ä½ķ":5177,"åįĩé«ĺ":5178,"ä»Ĭå¤©å¤©æ°Ķ":5179,"çĸ²åĬ³":5180,"åłĨ":5181,"è°ľ":5182,"å¾Īä¸įéĶĻ":5183,"åīįæıĲ":5184,"èĩªåĬ¨é©¾é©¶æ±½è½¦":5185,"åľŁåľ°":5186,"åĴĮäººç±»":5187,"ç´§æĢ¥":5188,"çĳ°":5189,"æŃ¥è¡Į":5190,"åľ¨æĪĳ":5191,"åį³å°Ĩ":5192,"å¼Ĥå¸¸":5193,"éī´":5194,"æĴĳ":5195,"åħ¨çĲĥèĮĥåĽ´åĨħ":5196,"äººéĻħ":5197,"çĴĥ":5198,"æľªæĿ¥åıĳå±ķ":5199,"åĴĮæĹ¶éĹ´":5200,"å¤¹":5201,"2022":5202,"æĪĳæŃ£åľ¨":5203,"çº¦ä¸º":5204,"åİŁåı¥":5205,"ä¸Ģåı¥":5206,"å¾Īæ£Ĵ":5207,"èĬĤèĥ½":5208,"å¯ĮåĲ«":5209,"çĮľ":5210,"åĽŀå¤į":5211,"ä¼ļæľī":5212,"éĻ¶":5213,"æľĢéĩįè¦ģçļĦ":5214,"è¡Ģåİĭ":5215,"åĮĸçŁ³":5216,"äº«çĶ¨":5217,"èº«è¾¹":5218,"ä¾£":5219,"èµİ":5220,"æĪĲåĬŁåľ°":5221,"çļĦåħ³éĶ®è¯į":5222,"çģµæĦŁ":5223,"ä¸įå¾Ĺ":5224,"åı¯ä»¥å¾ĹåĪ°":5225,"æ¢°":5226,"æħĪ":5227,"è¡Ģç®¡":5228,"ç®ĢçŁŃçļĦ":5229,"ä»¥å¸®åĬ©":5230,"æ¡Īä»¶":5231,"åĽŀå½Ĵ":5232,"ç©ĨæľĹ":5233,"ä¼ĺç§ĢçļĦ":5234,"çĽ¸åºĶçļĦ":5235,"æľįåĬ¡åĳĺ":5236,"ä»£æĽ¿":5237,"æĺİåªļ":5238,"æĪĳå»ºè®®":5239,"è¿Ĳè¾ĵ":5240,"èµ¶":5241,"åŁºäºİä»¥ä¸Ĭ":5242,"ä½ĵçİ°":5243,"éģ¥":5244,"ç©ĨæľĹçİĽ":5245,"æĵħéķ¿":5246,"æ´»åĬĽ":5247,"çº¢æ¥¼":5248,"å¤§è±¡":5249,"è¿Ļä»½":5250,"åĩºåıĳ":5251,"åĩºçİ°äºĨ":5252,"é¼»":5253,"ä¸ŃåĽ½çļĦ":5254,"æĻ´æľĹ":5255,"æĪĳä¸įèĥ½":5256,"åŃĻ":5257,"500":5258,"åĸľæ¬¢çļĦ":5259,"çļĦæ°ĽåĽ´":5260,"å¦Ĩ":5261,"å¾Īå¿«":5262,"æĦĪ":5263,"æ³°åĿ¦":5264,"ç¤ºä¾ĭ":5265,"åı¯è¡Į":5266,"ä¸ªæľĪ":5267,"å¤±æľĽ":5268,"éĢļä¿¡":5269,"æİ¥ç§į":5270,"éĢłæĪĲäºĨ":5271,"æľīå®³":5272,"å®¾è¯Ń":5273,"å¤§çĨĬçĮ«":5274,"çļĦç´":5275,"åı¯ä»¥å¸®åĬ©ä½ł":5276,"ä¸įèµ·":5277,"çĽ¸åħ³ä¿¡æģ¯":5278,"åı¯ä»¥ä¸º":5279,"é¢ĨåŁŁçļĦåºĶçĶ¨":5280,"å¯ĴåĨ·":5281,"è¿Ļä¹Ł":5282,"æıĲåīį":5283,"éģµå¾ª":5284,"å¥¥è¿Ĳä¼ļ":5285,"æķ°çĻ¾":5286,"çĶµè§Ĩåī§":5287,"åľ°åĽ¾":5288,"æ©ĺ":5289,"æ¯ģ":5290,"éĻĮ":5291,"ç©ĨæľĹçİĽå³°":5292,"åįĵ":5293,"ç²¾åĬĽ":5294,"æŁĲç§į":5295,"æļĹç¤º":5296,"çļĦçĹħ":5297,"è«":5298,"çļĦæ¤":5299,"åıĹä¼¤":5300,"åĴĮåģ¥åº·":5301,"æĪĳä»¬å¿ħé¡»":5302,"åĲĪæ³ķ":5303,"åı¯èĥ½çļĦ":5304,"åŃ¦ä¹łç¼ĸç¨ĭ":5305,"å°¼åħĭåı·":5306,"å¿ĺè®°":5307,"ä¹ŁéĿŀå¸¸":5308,"çĽĪ":5309,"æķ°åŃĹåĮĸ":5310,"æī«":5311,"çļĦçģµ":5312,"éķ¿åŁİ":5313,"è´¾":5314,"ä¼Ĺå¤ļ":5315,"è¯Ĺäºº":5316,"æĻ®åıĬ":5317,"åı¯èĥ½éľĢè¦ģ":5318,"çļĦæĻ¯çĤ¹":5319,"æ¸ħæ¥ļ":5320,"åİ¨æĪ¿":5321,"æĸĳ":5322,"è¯·æ±Ĥ":5323,"å°¿çĹħ":5324,"æ¯ıåĳ¨":5325,"çĥŃçĪ±":5326,"åĪ¶æĪĲ":5327,"è°·æŃĮ":5328,"æĸĩæ¡£":5329,"åĬŀåħ¬å®¤":5330,"æĪĳè¿ĺ":5331,"åŃ¦èĢħ":5332,"å¤·":5333,"åĮºåĿĹéĵ¾æĬĢæľ¯":5334,"çļĦæĢ»ç»ĵ":5335,"äºĭé¡¹":5336,"æľºåľº":5337,"åİĨç¨ĭ":5338,"80":5339,"çļĦåĲįåŃĹ":5340,"åħģ":5341,"çŃīåĽłç´ł":5342,"çļĦæĶ¶":5343,"åľ¨éĤ£éĩĮ":5344,"å¼ºå¤§çļĦ":5345,"æ°§æ°Ķ":5346,"è°¢è°¢ä½ł":5347,"å¾®é£İ":5348,"ä»¥ä¸ĭæĺ¯ä¸ĢäºĽ":5349,"æĮĩåįĹ":5350,"æĪĳæĥ³è¦ģ":5351,"æ³°åĿ¦å°¼åħĭåı·":5352,"é¥¼å¹²":5353,"å¤§è§Ħæ¨¡":5354,"å§Ĳ":5355,"çİ»çĴĥ":5356,"è¾Ľ":5357,"çļĦçŁŃæĸĩ":5358,"æĺ¯è°ģ":5359,"éĩİçĶŁåĬ¨çī©":5360,"åľ¨è¿Ļä¸ªåı¥åŃĲä¸Ń":5361,"çº¢æ¥¼æ¢¦":5362,"çĶ¨åĵģ":5363,"çĲĨå¿µ":5364,"éĽ¾":5365,"çļĦæŃ¥éª¤":5366,"çļĦåĲĮæĹ¶":5367,"éĩİé¤Ĳ":5368,"çļĦæĢ§èĥ½":5369,"æµ´":5370,"è§£çŃĶ":5371,"åĸ·":5372,"æĳĦæ°ı":5373,"éĹ®çŃĶ":5374,"å¤ļåħĥ":5375,"çıłç©ĨæľĹçİĽå³°":5376,"çļĦæİ¢":5377,"çĶ³åħĭ":5378,"æĿ°åħĭ":5379,"æ³½":5380,"èĤĸçĶ³åħĭ":5381,"èĢģé¼ł":5382,"çļĦæķĳ":5383,"ä¸Ģç¯ĩåħ³äºİ":5384,"è¿ľç¨ĭ":5385,"ä¸ŃçļĦåħ³éĶ®è¯į":5386,"åį±å®³":5387,"Ġ+":5388,"ä½Ĩåľ¨":5389,"æ¶ĪéĻ¤":5390,"è¾£æ¤Ĵ":5391,"çĶµåĻ¨":5392,"å·¥ä½ľæķĪçİĩ":5393,"æľīçĶ¨":5394,"ç»ĦæĪĲéĥ¨åĪĨ":5395,"åĩºéĹ¨":5396,"å¯º":5397,"ä¼ı":5398,"åĪ¶åº¦":5399,"çļĦçī¹å¾ģ":5400,"å¤Ħäºİ":5401,"æĿ¥åĪ°":5402,"èĥ½å¤Łåľ¨":5403,"çĶ·å£«":5404,"æ³Ħ":5405,"åĩºåİ»":5406,"br":5407,"åĲİæŀľ":5408,"ä¼ŀ":5409,"çĸ¼":5410,"åī²":5411,"ä»ĸåĢĳ":5412,"æķĻåŃ¦":5413,"ç³ĸå°¿çĹħ":5414,"ä¹Ļ":5415,"å®ļä½į":5416,"èħ°":5417,"åĴĮè¡Įä¸º":5418,"ä¸ºä¸»":5419,"æ¸©é¦¨":5420,"æĮĸæİĺ":5421,"æĪĳæĺ¨å¤©":5422,"æµĵéĥģ":5423,"çļĦä½ľçĶ¨":5424,"å¯¼èĩ´äºĨ":5425,"ç¾İåĳ³çļĦ":5426,"å®ĥåľ¨":5427,"æľŁæľĽ":5428,"æĶ¹æŃ£":5429,"ä¸įå°ĳ":5430,"éľį":5431,"¡èĲĿåįľ":5432,"èĥ¡èĲĿåįľ":5433,"è°¢è°¢ä½łçļĦ":5434,"æľĢè¿ĳçļĦ":5435,"å¤ķ":5436,"ç³Ĭ":5437,"æĺ¨æĻļ":5438,"åįıè°ĥ":5439,"å¾Īå¤§çļĦ":5440,"ç²¾ç¡®":5441,"çĲĥéĺŁ":5442,"èĢĮä¸į":5443,"ä¸Ģèµ·åİ»":5444,"è¿ĩäºİ":5445,"å°ıæĺİçļĦ":5446,"æĦŁæ¿Ģ":5447,"ç»¼ä¸Ĭ":5448,"äº¦":5449,"åĮ»çĸĹè¡Įä¸ļ":5450,"æ¢¨":5451,"éĿ¢ä¸Ĭ":5452,"æ°ĽåĽ´":5453,"å·²çŁ¥":5454,"åı¤è¯Ĺç»ŃåĨĻ":5455,"æ³¥":5456,"è¿Ļä¸ªäºº":5457,"çłĶç©¶äººåĳĺ":5458,"é¥®çĶ¨":5459,"å¤º":5460,"æĹłè®ºæĺ¯":5461,"åįıåĬ©":5462,"çľŁæŃ£çļĦ":5463,"çĥĤ":5464,"æ¥Ń":5465,"åĸľåī§":5466,"ï¼ģâĢĿ":5467,"æĭĸ":5468,"çĽĨ":5469,"åĨ¬å¤©":5470,"æĺĨ":5471,"æ¡Īä¾ĭ":5472,"æĹ±":5473,"å¹³åĿĩåĪĨç»Ļ":5474,"çİ°åľº":5475,"åĲģ":5476,"ä¸ĬäºĨ":5477,"ç§ĭåŃ£":5478,"çĭ®åŃĲ":5479,"æĻ¶":5480,"è®ĵ":5481,"è¿ĻäºĽä¿¡æģ¯":5482,"æ¦Ħ":5483,"è¯·ä¸º":5484,"æĦŁçŁ¥":5485,"æ¿Ģåıĳ":5486,"å§ĭç»Ī":5487,"åĩıç¼ĵ":5488,"æĪĳä»Ĭå¤©":5489,"è¶ħçº§":5490,"åıł":5491,"ç·":5492,"èĩ³åħ³éĩįè¦ģ":5493,"åĬ£":5494,"çĶŁæ´»çļĦ":5495,"åģļæ³ķ":5496,"Ħæ¦Ħ":5497,"çļĦåĬĽéĩı":5498,"çİ¯å¢ĥéĹ®é¢ĺ":5499,"éĢīæĭ©ä¸Ģä¸ª":5500,"éĤ¦":5501,"ä¼ĺåħĪ":5502,"æĥ§":5503,"çļĦå£°éŁ³":5504,"é¥±":5505,"éĢĹåı·":5506,"çĲĨæĥ³":5507,"åĪĽéĢłåĬĽ":5508,"æĪĳåİ»":5509,"é¹¿":5510,"çļĦèĬ±":5511,"å¼¦":5512,"ä½ľä¸ļ":5513,"æįŁå¤±":5514,"åĩºä¸Ģä¸ª":5515,"ä¿ĿæĬ¤æĪĳä»¬çļĦ":5516,"æ§":5517,"å·¥ä½ľåĴĮ":5518,"ä¸ĵæ³¨äºİ":5519,"âĦ":5520,"æĸĩç«łä¸ŃæıĲåĪ°":5521,"ä¸įå¤Ł":5522,"æŁľ":5523,"åıĻ":5524,"ä¹°äºĨä¸Ģ":5525,"åįİçĽĽ":5526,"å¯ĵ":5527,"æĥħå¢ĥ":5528,"çī©èģĶç½ĳ":5529,"å¥¶éħª":5530,"æĿ¨":5531,"åļ":5532,"æ»ļ":5533,"è®¾è®¡ä¸Ģä¸ª":5534,"å®¶åĽŃ":5535,"æī©å±ķ":5536,"åı¤åħ¸":5537,"è¿ĲåĬ¨åĳĺ":5538,"åĬłçĥŃ":5539,"åĩºèī²çļĦ":5540,"ä¹ĭæĹħ":5541,"ä¸įèī¯":5542,"æĶĢ":5543,"åıĹåĪ°äºĨ":5544,"æĻļé¤Ĳ":5545,"éĢļè¿ĩå¯¹":5546,"âĢ¦âĢ¦":5547,"èģĮåľº":5548,"èĤīç±»":5549,"ç§ĳåŃ¦å®¶ä»¬":5550,"åįİçĽĽé¡¿":5551,"éªĹ":5552,"æķĻå¸Ī":5553,"ç®ĢåĮĸ":5554,"çĿ¡è§ī":5555,"å¦»":5556,"çļĦçĮ«":5557,"éĢĨ":5558,"éĶĻåĪ«":5559,"ä¸įç¡®å®ļ":5560,"å¤įæĿĤçļĦ":5561,"çıįæĥľ":5562,"éĶĻåĪ«åŃĹ":5563,"è¿Ļä¸ªæķħäºĭ":5564,"æĸ°æĬĢæľ¯":5565,"è´¢å¯Į":5566,"æĺ¯ä¸Ģå®¶":5567,"åĩºçļĦ":5568,"éĻĮçĶŁ":5569,"çĩ¥":5570,"âĦĥ":5571,"å°ĸ":5572,"ç»Ļäºº":5573,"çĭ¼":5574,"æĸľ":5575,"çĶ¨éĢĶ":5576,"çĲĨçĶ±":5577,"çĽ¸å½ĵ":5578,"é¡Į":5579,"ä¸ĭçļĦ":5580,"è¯·æł¹æį®":5581,"ç«Ł":5582,"æ¼«æŃ¥":5583,"åĿĲåľ¨":5584,"ä»ĸä»¬ä¹ĭéĹ´":5585,"åĭĥ":5586,"Ġ4":5587,"éŃĤ":5588,"æĶ¹åıĺäºĨ":5589,"è®°å¾Ĺ":5590,"ç¾İæĻ¯":5591,"å±ıå¹ķ":5592,"æĸ°éĹ»æłĩé¢ĺ":5593,"å¼ºåº¦":5594,"èŃ¦æĸ¹":5595,"æķĮ":5596,"è¿Ī":5597,"æĺİäº®":5598,"åı¯ä»¥çĶ¨äºİ":5599,"å¾Īå¤ļäºº":5600,"ä¸¤äºº":5601,"æģĲæĢĸ":5602,"éĹ»åĲį":5603,"æııåĨĻ":5604,"ä»¥åħ¶":5605,"ä¸ĸçķĮåĲĦåľ°":5606,"ä¸įåŃĺåľ¨":5607,"it":5608,"çİ°ä»£ç¤¾ä¼ļ":5609,"ĠÃ·":5610,"å¦Ĥä½ķåĪ¶ä½ľ":5611,"åıĤæķ°":5612,"åĲ¬éŁ³ä¹Ĳ":5613,"æĺİçĻ½äºĨ":5614,"æ³ª":5615,"ĸæģ¯":5616,"ä¿Ħ":5617,"åģıè§ģ":5618,"æľīæ°§":5619,"è³ĩ":5620,"æĸĩæľ¬è¿Ľè¡Į":5621,"åľ°åĲį":5622,"çļĦçĭ¬":5623,"çļĦç¼ĸç¨ĭ":5624,"å£³":5625,"éĢļå¸¸ä¼ļ":5626,"èĨľ":5627,"åĲĦä¸ªé¢ĨåŁŁ":5628,"æ¡Ĩ":5629,"èħ¾":5630,"å±ħä½ı":5631,"å¼ķå¯¼":5632,"æ²Ļåıĳ":5633,"çļĦæ¡":5634,"äººæĢ§":5635,"åĴĮçĲĨè§£":5636,"æıĲé«ĺäºĨ":5637,"èĸ¯":5638,"éĶĻè¿ĩ":5639,"å·²æĪĲä¸º":5640,"æł¹æį®èĩªå·±çļĦ":5641,"æ£ĭ":5642,"çŃĽ":5643,"å»ºè®®åĲĹ":5644,"åİŁåŃĲ":5645,"åł´":5646,"é£İæļ´":5647,"æĿī":5648,"çĭĹçļĦ":5649,"è¡Įé©¶":5650,"èī°":5651,"çİ«":5652,"åĳ¼åĲģ":5653,"ãĢĤ\"<|":5654,"çļĦæ²ŁéĢļ":5655,"çļĦåĳ³éģĵ":5656,"æ¶¨":5657,"å¹²åĩĢ":5658,"å°ĩ":5659,"è°ĭ":5660,"äºļé©¬":5661,"çĤİçĥŃ":5662,"ç¢ĳ":5663,"å¾Īé«ĺåħ´":5664,"è¡¨è¿°":5665,"åĴĮä¸ªäºº":5666,"å¹¿æ³ĽçļĦ":5667,"åºĻ":5668,"ç²®":5669,"èĬĿå£«":5670,"å¸¦çĿĢ":5671,"åħ³éĹŃ":5672,"çŃīå¤ļä¸ª":5673,"æĽ´æĶ¹":5674,"æİ¨è¿Ľ":5675,"æŁ¿":5676,"ä»İä¸Ń":5677,"æĭĽèģĺ":5678,"æ¯ķä¸ļ":5679,"æĹ¥çĽĬ":5680,"æ¿ĢçĥĪ":5681,"æķ°æį®åĪĨæŀĲ":5682,"æ¸©å®¤æ°Ķä½ĵæİĴæĶ¾":5683,"æĪ¿å±ĭ":5684,"è¿ĻäºĽéĥ½æĺ¯":5685,"æĹ©æľŁ":5686,"çļĦæ²Ļ":5687,"ä½Ĩä¸į":5688,"æĮ¯":5689,"æĸĩè¨Ģ":5690,"æľīæĦıä¹ī":5691,"çļĦæĻ®":5692,"ä½łæĺ¯":5693,"ä¼Ĳ":5694,"èĥľåľ°":5695,"____":5696,"å±Ĥæ¬¡":5697,"ä¸Ģèĩ´":5698,"èĺĳ":5699,"åħģè®¸":5700,"éĩıåŃĲåĬĽåŃ¦":5701,"åĪĳ":5702,"éĻªä¼´":5703,"å®¢æľį":5704,"è¿Ļæ®µè¯Ŀ":5705,"æĪĳä»¬åľ¨":5706,"æ¿ĢåĬ±":5707,"çīĽä»Ķ":5708,"çļĦçĬ¶æĢģ":5709,"æĺĤ":5710,"å¤§å¤§":5711,"å©´":5712,"æīİ":5713,"çļĦä¾ĭåŃĲ":5714,"æľĪäº®":5715,"èĭ¹æŀľåħ¬åı¸":5716,"ç¿ħ":5717,"äºļé©¬éĢĬ":5718,"at":5719,"æĺ¯ä¸ĸçķĮä¸ĬæľĢ":5720,"ç¥ĸ":5721,"æĹ©æĻ¨":5722,"æ´Ĵ":5723,"æĥĳ":5724,"ï¼ħ":5725,"äººå·¥æĻºèĥ½æĬĢæľ¯åľ¨":5726,"å¾Į":5727,"çļĦæķ°åŃĹ":5728,"æĺ¾å¾Ĺ":5729,"å®īåħ¨åĴĮ":5730,"åľ°çĲĨ":5731,"æºª":5732,"æľīæĹ¶åĢĻ":5733,"é«ĺè´¨éĩı":5734,"èĺĳèıĩ":5735,"å»ºçŃĳçī©":5736,"åĲĳéĩı":5737,"èĥĥ":5738,"åıĳéĢģ":5739,"åŀĤ":5740,"æĪĺæĸĹ":5741,"ä¸ĢäºĽäºº":5742,"æĸĩè¨Ģæĸĩ":5743,"ä¿Ŀæļĸ":5744,"åľ¨åĵªéĩĮ":5745,"ä½Ĩä¹Ł":5746,"æĨ":5747,"æĢ»ä½ĵ":5748,"é£İåħī":5749,"ç¿Ķ":5750,"çļĦå½¢å¼ı":5751,"è¯Ńå¢ĥ":5752,"ä¿®å¤į":5753,"æ¾³":5754,"åģ¥èº«æĪ¿":5755,"éĿ¢ä¸´çĿĢ":5756,"è¯¥åı¥åŃĲ":5757,"æ©Ħæ¦Ħ":5758,"çŃīäºİ":5759,"å¹¶è¾ĵåĩº":5760,"æķ°æį®åĴĮ":5761,"çļĦæķĳèµİ":5762,"æĬĢæľ¯çļĦåıĳå±ķ":5763,"å¸ĤåľºèĲ¥éĶĢ":5764,"æŀģç«¯å¤©æ°Ķ":5765,"åľ¨ç»Ļå®ļçļĦ":5766,"å²ģçļĦ":5767,"é½¿":5768,"èĵĿèī²çļĦ":5769,"çİ«çĳ°":5770,"æĪĳä»¬ä¼ļ":5771,"çļĦæŃĮæĽ²":5772,"å¤ĩåıĹ":5773,"åĳĪçİ°åĩº":5774,"èĿ´":5775,"åĽ¾æ¡Ī":5776,"æķħäºĭæĥħèĬĤ":5777,"èĿ´èĿ¶":5778,"æĶ¿æ²»":5779,"è®©è®¡ç®Ĺæľº":5780,"æĪĳä»¬åı¯ä»¥çĶ¨":5781,"åĩºçīĪ":5782,"å²Ĺ":5783,"åĴĮçİ¯å¢ĥ":5784,"æĪĺçķ¥":5785,"äººå·¥æĻºèĥ½åĴĮ":5786,"éĢļçŁ¥":5787,"çļĦåľºæĻ¯":5788,"æł¹æį®æłĩé¢ĺ":5789,"ç¢³æİĴæĶ¾":5790,"äºīè®®":5791,"éĤ»":5792,"åĪĨåĪ«æĺ¯":5793,"ä¹Łèĥ½":5794,"\"ãĢĤ":5795,"ç«ĭåį³":5796,"ç»ıèĲ¥":5797,"è®¾å®ļ":5798,"çļĦåĲįç§°":5799,"çĪ¶æ¯į":5800,"åįıè®®":5801,"éĺ¿çĶĺ":5802,"å¿«éĢŁåıĳå±ķ":5803,"çĺ¦":5804,"ç»¼ä¸ĬæīĢè¿°":5805,"ç»³":5806,"çĭ±":5807,"åıĳè¡¨":5808,"è¤":5809,"åĲįåı«":5810,"åºŁå¼ĥ":5811,"æıŃç¤º":5812,"ç§Ĵ":5813,"èĥĸ":5814,"éĶħä¸Ń":5815,"å»ºéĢł":5816,"ä¸Ģæ®µå¯¹è¯Ŀ":5817,"ä¸ªä½ĵ":5818,"æ¢ģ":5819,"çĤī":5820,"çļĦåĴĸåķ¡":5821,"æ°¢":5822,"æķ°æį®ä¸Ń":5823,"åıĳçİ°äºĨ":5824,"å¼ºåĮĸ":5825,"éĢĶå¾Ħ":5826,"ä½Ĩæĺ¯æĪĳ":5827,"çļĦæĬ¥":5828,"æĪĸç¼º":5829,"å¤ªå¤ļ":5830,"å¥½åĥı":5831,"ç´łé£Ł":5832,"åĲİçļĦåı¥åŃĲ":5833,"å®ŀä½ĵè¯ĨåĪ«":5834,"ç§ĳå¹»å°ıè¯´":5835,"æĪª":5836,"èĤĸçĶ³åħĭçļĦæķĳèµİ":5837,"ä¸Ģåħ±":5838,"æĪĲçĨŁ":5839,"çŁ¶":5840,"çļĦæ°ĶåĢĻ":5841,"æĽ¿æį¢ä¸º":5842,"æĽ´æŃ£":5843,"æĭĴ":5844,"æĴ°åĨĻ":5845,"æĪĳåĴĮ":5846,"ä¼ĺç¾İ":5847,"å½»":5848,"çĶµåŃĲåķĨåĬ¡":5849,"å¹¼":5850,"å¾¡":5851,"æ²ĥ":5852,"æ©Ł":5853,"çİ¯ä¿ĿçļĦ":5854,"çļĦæķ°åŃ¦":5855,"èĥ¶":5856,"åĴĮç®¡çĲĨ":5857,"èħĬ":5858,"ç»ĻæĪĳæİ¨èįĲ":5859,"åĬłå·¥":5860,"æĵ¦":5861,"æĦıå¤ĸ":5862,"åľ°åĿĢ":5863,"å¤±ä¸ļ":5864,"è±ĨèħĲ":5865,"éŀĭåŃĲ":5866,"çĶ¢":5867,"å½¢æĢģ":5868,"éĽķ":5869,"çļĦåħ³éĶ®ä¿¡æģ¯":5870,"å¼ķèµ·äºĨ":5871,"æĳĦæ°ıåº¦":5872,"äºĳè®¡ç®Ĺ":5873,"ä¸Ģä¸ĭè¿Ļç¯ĩæĸĩç«ł":5874,"æĸ°åĨł":5875,"è¾ĥä¸º":5876,"äººåĴĮ":5877,"éĿŀå¸¸éĢĤåĲĪ":5878,"å®¶éĩĮ":5879,"æĸĩèīº":5880,"è®©äººæĦŁåĪ°":5881,"äººæķ°":5882,"åŀ«":5883,"æĪĸæĺ¯":5884,"çī¹å®ļçļĦ":5885,"æĦģ":5886,"éĢıæ°Ķ":5887,"è¯·ä»İ":5888,"è¯·ä¸ºæĪĳ":5889,"çĶµå½±åĲįç§°":5890,"çĽĸèĮ¨":5891,"åıĺéĩı":5892,"çļĦä¸įåĲĮ":5893,"å¿ĥèĦıçĹħ":5894,"ob":5895,"åıĺå¾Ĺè¶ĬæĿ¥è¶Ĭ":5896,"çļĦæİĴæĶ¾":5897,"æģ°":5898,"çĥ¤ç®±":5899,"éĢĤçĶ¨äºİ":5900,"èħ¹":5901,"åŁºäºİä»¥ä¸ĭ":5902,"å§ľ":5903,"èµ°äºĨ":5904,"çļĦæĶ¿":5905,"é«ĺçļĦå±±å³°":5906,"å°ıæĺİåĴĮå°ıçº¢":5907,"èĻ¾":5908,"åı¯ä»¥ä»İ":5909,"æİ¥è¿ĳ":5910,"æĸ°æ¬¾":5911,"æĪĲä¸ºä¸Ģä¸ª":5912,"199":5913,"ä¼ģä¸ļå®¶":5914,"--":5915,"åŁºäºİä»¥ä¸Ĭè¿Ļæ®µæĸĩæľ¬":5916,"æ¯ıä¸ªäººéĥ½åºĶè¯¥":5917,"ä¹ĭä¸Ń":5918,"éĶ»çĤ¼èº«ä½ĵ":5919,"çļĦè¡¨çİ°":5920,"åĿļå®ļ":5921,"è¿Ļæĺ¯ä¸Ģéĥ¨":5922,"æķ°æį®è¿Ľè¡Į":5923,"æ²¡æľīä»»ä½ķ":5924,"æº¯":5925,"åĮ»åŃ¦å½±åĥı":5926,"ä¸ĭåĳ¨":5927,"åĩıå°ĳä½¿çĶ¨":5928,"åĩıèĤ¥":5929,"çļĦä¸ľè¥¿":5930,"äººä»¬å¯¹":5931,"åĩłç§į":5932,"éĺ³åħīæĺİåªļ":5933,"çħ§é¡¾":5934,"çļĦæłĳ":5935,"éĶĻè¯¯è¿Ľè¡Į":5936,"çĶľçĤ¹":5937,"Ġä½ł":5938,"çļĦæ¤į":5939,"å¿ĹæĦ¿":5940,"åĽºå®ļ":5941,"çļĦä¸»è¦ģè§ĤçĤ¹æĺ¯":5942,"åįļå®¢":5943,"éŁ§":5944,"ç®ĢåİĨ":5945,"æ·±è¿ľçļĦå½±åĵį":5946,"ä¸įåı¯æĪĸç¼º":5947,"å¦ĤæŀľæĪĳä»¬":5948,"è¢«è§Ĩä¸º":5949,"çļĦæ³¨":5950,"åħ´è¶£çĪ±å¥½":5951,"è¿ĳæľŁ":5952,"è¯¦ç»ĨçļĦ":5953,"åĴĮç»ıæµİ":5954,"åĳ¨æľŁ":5955,"æĮĩä»¤":5956,"åĨħçļĦ":5957,"ç»Ļå®ļä¸Ģç¯ĩæĸĩç«ł":5958,"ç¾İå¦Ļ":5959,"è¸ı":5960,"çĶŁæĢģçİ¯å¢ĥ":5961,"ä¹Łå°Ĩ":5962,"åĴĮåŃ¦ä¹ł":5963,"çļĦäººçī©":5964,"å¡ĳæĸĻè¢ĭ":5965,"æĢ§æł¼":5966,"èĶ¬èıľåĴĮ":5967,"ðŁ":5968,"çļĦæľĢä½³":5969,"è¡¥åħħ":5970,"çªģçł´":5971,"æĿ¥åĩıå°ĳ":5972,"åħ½":5973,"è¯·å¸®æĪĳ":5974,"è¯Ī":5975,"åľ¨åħ¬åĽŃéĩĮ":5976,"åıĸæ¶Ī":5977,"èªīä¸º":5978,"æľ¬è´¨":5979,"åĪĽéĢłä¸Ģä¸ª":5980,"èĥ¡æ¤Ĵ":5981,"èĢĥèĻĳåĪ°":5982,"ä½łèĥ½åĳĬè¯īæĪĳ":5983,"åİĺç±³":5984,"å¾®ç¬ĳ":5985,"ç®¡çĲĨåĴĮ":5986,"åĮħå®¹":5987,"é¸ŁåĦ¿":5988,"ç³Ł":5989,"ä»¥åĲİ":5990,"è§Ĵèī²ä»ĭç»į":5991,"çļĦç¤¼":5992,"ç¬¬ä¸Ģæ¬¡":5993,"åĴĮæĬĢèĥ½":5994,"èĨĢ":5995,"çĶµå½±è¯Ħè®º":5996,"ç§ĳæĬĢåħ¬åı¸":5997,"åľŁè±Ĩ":5998,"ä»¥åīį":5999,"å¤ļæ¬¡":6000,"çļĦæ³ķå¾ĭ":6001,"å¥³åŃĲ":6002,"åĬłå¯Ĩ":6003,"çļĦæ¸©åº¦":6004,"åĩłä¹İ":6005,"åı¯ä»¥æıĲä¾Ľ":6006,"æĤłä¹ħ":6007,"çī©æµģ":6008,"æĿīçŁ¶":6009,"éĻĪè¿°åı¥":6010,"æľ¨æĺŁ":6011,"çį":6012,"çļĦåŃ£èĬĤ":6013,"åīĳ":6014,"èĥĨ":6015,"å¯¹å¾ħ":6016,"å¨ģå¤·":6017,"è¿Ļä¸ªè¯į":6018,"èĪį":6019,"è¾ĥé«ĺ":6020,"å¤ıå¨ģå¤·":6021,"åı¯ä»¥å¸®åĬ©åĮ»çĶŁ":6022,"ä¼į":6023,"æ¡ĮåŃĲ":6024,"çļĦæµ·æ»©":6025,"å®½æĿ¾":6026,"ä»Ķç»Ĩ":6027,"ä¼ĺéĽħ":6028,"çļĦç¨ĭåºı":6029,"ç»ŃåĨĻåı¤è¯Ĺ":6030,"é©¬æĭī":6031,"å»ºç«ĭä¸Ģä¸ª":6032,"çļĦä»£è¡¨":6033,"çļĦæīĭæľº":6034,"å¸ĿåĽ½":6035,"éľĢè¦ģè¿Ľè¡Į":6036,"æľ¯è¯Ń":6037,"å¹¶ä½¿çĶ¨":6038,"æĪ¿åŃĲ":6039,"éĴ¢çĲ´":6040,"çİĭæĺŁ":6041,"ä¸Ģå°ģ":6042,"ç§ĺå¯Ĩ":6043,"çļĦç¬ĳ":6044,"åĿļæŀľ":6045,"éĥ½å¾Ī":6046,"åķı":6047,"å¤ļå½©":6048,"å¹²æī°":6049,"ä½łåı¯ä»¥å°Ŀè¯ķ":6050,"å·¾":6051,"åĴĮæµ·":6052,"çļĦå¸®åĬ©":6053,"ä¸ºæĪĳä»¬":6054,"ä¸ĭä¸Ģä¸ª":6055,"æ¯ıä¸Ģä¸ª":6056,"åĬłåī§":6057,"å¤ĸè§Ĥ":6058,"åĴĮèĶ¬èıľ":6059,"å®³æĢķ":6060,"å¹½é»ĺ":6061,"ä¸Ģæ¬¡æĢ§":6062,"çīĩæ®µ":6063,"åĻª":6064,"åıĸåĩº":6065,"æ¸ł":6066,"æĭĵå±ķ":6067,"å«Įçĸĳ":6068,"æĹħæ¸¸æĻ¯çĤ¹":6069,"åĮħåĲ«äºĨ":6070,"éĩįè¦ģçļĦä½ľçĶ¨":6071,"ä¸įéĶĻçļĦéĢīæĭ©":6072,"åĩıåİ»":6073,"åİŁæĿ¥":6074,"ç¿ł":6075,"åī©ä½Ļ":6076,"å¤ļå¹´":6077,"åĳĢ":6078,"è¿ĻäºĽæĬĢæľ¯":6079,"èĪªç©º":6080,"å½ĵæĪĳ":6081,"æ¯ıä¸ªäººçļĦ":6082,"åĸĦèī¯":6083,"çĸı":6084,"æ¡¶":6085,"ä¸įçĶ¨":6086,"ä¸»åĬ¨":6087,"æ¯Ķäºļ":6088,"æ¯Ķå¦Ĥè¯´":6089,"æĢ§è´¨":6090,"åı¯è¯»":6091,"ä¿ĿæĮģèº«ä½ĵåģ¥åº·":6092,"åĺ´":6093,"çĶ¨æĪ·çļĦ":6094,"å¹¿éĺĶ":6095,"å¯Ĩåº¦":6096,"èĤ©":6097,"æĮĩæłĩ":6098,"åľ°éĵģ":6099,"æĺŁæĺŁ":6100,"è¿ģ":6101,"å½ĵæĪĳä»¬":6102,"ç»Ĩèħ»":6103,"åĮĹäº¬å¸Ĥ":6104,"åħ¨éĥ¨":6105,"è¿Ŀåıį":6106,"æľ¬å°ıè¯´":6107,"çİ°çĬ¶":6108,"å±ķçİ°äºĨ":6109,"å¯Ħ":6110,"è®©å®ĥ":6111,"æĬĳéĥģ":6112,"çļĦç©ºæ°Ķ":6113,"ç»µ":6114,"åĨ°å·Ŀ":6115,"éļĨ":6116,"Ġ(":6117,"oo":6118,"éģĹä¼ł":6119,"æĮº":6120,"å¤§æĪĺ":6121,"åĩĨå¤ĩå¥½":6122,"é¢ĳçİĩ":6123,"ä¸Ĭæĺł":6124,"ç¥ŀå¥ĩ":6125,"æľīæ°§è¿ĲåĬ¨":6126,"çļĦç¡":6127,"æĢİä¹Īåģļ":6128,"çļĦçł´":6129,"ä»Ĭå¤©çļĦå¤©æ°Ķ":6130,"è¿Ļä¸¤":6131,"æĭħä»»":6132,"æ¸´":6133,"çĸ¾çĹħçļĦ":6134,"çļĦæĢĿèĢĥ":6135,"å§Ĩæĸ¯":6136,"å®īåħ¨æĢ§":6137,"åĪ¸":6138,"ĠAI":6139,"ä¸ĸçķĮä¸Ĭ":6140,"èĮ«":6141,"çļĦæĢĿç»´":6142,"è¿ĺè¦ģ":6143,"çĽ¸çŃī":6144,"è¯¦ç»ĨåĽŀçŃĶ":6145,"åŀĥåľ¾éĤ®ä»¶":6146,"å±ķç¤ºäºĨ":6147,"åĨĮ":6148,"ä»£è°¢":6149,"æ´ĽæĿīçŁ¶":6150,"ç½²":6151,"çļĦéĢŁåº¦":6152,"Ja":6153,"æ¶Į":6154,"çĲ³":6155,"çļĦæ°Ķæģ¯":6156,"æĸĩæľ¬ä¸ŃçļĦåħ³éĶ®è¯į":6157,"éĢīæĭ©éĢĤåĲĪ":6158,"è¡°":6159,"æĤ²ä¼¤":6160,"æģĴæĺŁ":6161,"æłĳæľ¨":6162,"èı²å°Ķ":6163,"æĹĹ":6164,"è¯·æĢ»ç»ĵ":6165,"éĹ®é¢ĺåĴĮ":6166,"ç´łè´¨":6167,"çļĦåħī":6168,"å¿į":6169,"çĨŁæĤī":6170,"è¢«èªīä¸º":6171,"éŁ¿":6172,"ä¹ĺåĿĲ":6173,"å©ļç¤¼":6174,"ç¿Ĵ":6175,"å®ļå¾ĭ":6176,"Ġä½¿çĶ¨":6177,"è®¤åı¯":6178,"åį±æľº":6179,"çļĦä¸Ģæ®µå¯¹è¯Ŀ":6180,"å®´":6181,"çļĦèĭ¹æŀľ":6182,"è¡¬è¡«":6183,"æ°Ľ":6184,"ä¸ĬçıŃ":6185,"é»Ľ":6186,"çļĦèĩªçĦ¶":6187,"éĿ¢æĿ¡":6188,"æľĢéĢĤåĲĪ":6189,"äººä»¬åľ¨":6190,"70":6191,"å¹³éĿĻ":6192,"å®ĮæĪĲä»»åĬ¡":6193,"çļĦé¢ĨåŁŁ":6194,"è¿Ļæł·åı¯ä»¥":6195,"çļĦåĬŁèĥ½":6196,"çļĦæ¯ĶèµĽ":6197,"å¦Ĥä»Ĭ":6198,"ä»ĩ":6199,"ä¸ĭéĿ¢çļĦæĸĩæľ¬":6200,"ä»¥ä¸ĭåĩłä¸ª":6201,"èĪĴéĢĤçļĦ":6202,"æĺ¯ä¸ºäºĨ":6203,"åľ°çĲĥä¸Ĭ":6204,"çĵ¦":6205,"æĸĩæľ¬åĪĨç±»":6206,"åħ¶ä»ĸäºº":6207,"åģļä¸ĢäºĽ":6208,"çļĦå®ļä¹ī":6209,"åĮ¹éħį":6210,"è´·":6211,"èķ´åĲ«":6212,"åĩĮ":6213,"å®ĥä»¬åľ¨":6214,"DNA":6215,"éľĢè¦ģåľ¨":6216,"æī¿æĭħ":6217,"åĩºçİ°åľ¨":6218,"å°±èĥ½":6219,"ä¹Ĳè§Ĥ":6220,"è¢Ń":6221,"çļĦç¾İæĻ¯":6222,"éĵģå¡Ķ":6223,"æ·±æ·±":6224,"ç¼ĸç¨ĭè¯Ńè¨Ģ":6225,"ç»ĺçĶ»":6226,"æĹĭè½¬":6227,"åı£åı·":6228,"ç»Ŀå¯¹":6229,"çļĦè§ĤçĤ¹":6230,"ä¸»æ¼Ķ":6231,"ä¸ªåŃĹ":6232,"çĳŁ":6233,"éļ¾é¢ĺ":6234,"åŃ¦ä¹łæĸ°":6235,"åĲİæĿ¥":6236,"ç¾İåĽ½æĢ»ç»Ł":6237,"åħ¶ä¸Ńä¸Ģä¸ª":6238,"åĬŀæ³ķ":6239,"æĭ¥åłµ":6240,"åĴĮå¯¹":6241,"å¯¹æĸĩæľ¬éĶĻè¯¯è¿Ľè¡Į":6242,"æ¨ª":6243,"åģļèµ·":6244,"éĿ¢ç²ī":6245,"èĢģäºº":6246,"åĲ«éĩı":6247,"ç»Ļä½łä¸¤ä¸ª":6248,"è®©ä»ĸä»¬":6249,"ç±»ä¼¼äºİ":6250,"éĹ¹":6251,"ä¿¡çĶ¨":6252,"åĿ¡":6253,"åĽłä¸ºæĪĳ":6254,"åĽ´ç»ķ":6255,"å¯¹è¯Ŀä¸Ń":6256,"åķ¦":6257,"é£İåĲ¹":6258,"çĶŁæĪĲä¸Ģé¦ĸ":6259,"çĶ·äºº":6260,"å¹¶å¯¹":6261,"æµĨ":6262,"çŃīå¤ļç§į":6263,"æ²³æµģ":6264,"æĸĩæľ¬çºłéĶĻ":6265,"AP":6266,"æĢĴ":6267,"çľĭçĿĢ":6268,"åħ¼":6269,"å¹²æĹ±":6270,"ç¼ĸè¾ĳä¸ĭéĿ¢":6271,"æĿľ":6272,"åĴĮå°ı":6273,"å¸ħ":6274,"è·Łè¸ª":6275,"åľĨå½¢":6276,"åĴĮä½¿çĶ¨":6277,"æĹĭå¾ĭ":6278,"è½¨éģĵ":6279,"è¿½æº¯":6280,"åħĥéĴ±":6281,"ä¸´åºĬ":6282,"æĶ¾ç½®":6283,"äººå·¥æĻºèĥ½å°Ĩ":6284,"èĢĲå¿ĥ":6285,"å¦ĤæŀľæĤ¨éľĢè¦ģ":6286,"çĶŁæĪĲä»ĸä»¬ä¹ĭéĹ´":6287,"è¦ģæ±Ĥå¯¹è¯ĿåĨħå®¹":6288,"è¯¦ç»Ĩä¸°å¯Į":6289,"è§Ĵèī²ä¿¡æģ¯å¦Ĥä¸ĭ":6290,"ç»Ļä½łä¸¤ä¸ªè§Ĵèī²ä¿¡æģ¯å¦Ĥä¸ĭ":6291,"çĶŁæĪĲä»ĸä»¬ä¹ĭéĹ´çļĦä¸Ģæ®µå¯¹è¯Ŀ":6292,"è¦ģæ±Ĥå¯¹è¯ĿåĨħå®¹è¯¦ç»Ĩä¸°å¯Į":6293,"éĽĩ":6294,"1000":6295,"æŀļ":6296,"ä»¥éģ¿åħį":6297,"è¾¾æĪĲ":6298,"¬éĹ´":6299,"æł¼å¼ı":6300,"Ġä»ĸ":6301,"æĶ¹éĿ©":6302,"èĤĿ":6303,"æľĢéĩįè¦ģçļĦæĺ¯":6304,"Ġè¿Ļä¸ª":6305,"ç½Ĺé©¬":6306,"äºĨä¸Ģåľº":6307,"èľľèľĤ":6308,"æ°Ķè±¡":6309,"åħ±åĲĮåĬªåĬĽ":6310,"æłĩçĤ¹ç¬¦åı·":6311,"æĹłæķ°":6312,"æ¯Ķçī¹":6313,"ç²¾èĩ´":6314,"å®¢è§Ĥ":6315,"çļĦæĢĿæĥ³":6316,"çļĦçĤ":6317,"æĢ§éĹ®é¢ĺ":6318,"æ¹¾":6319,"çľĭäºĨ":6320,"å·²ç»ıåľ¨":6321,"åĢ¡":6322,"å¿ĥè¡Ģç®¡":6323,"ç¿»è¯ĳæĪĲçİ°ä»£":6324,"èĬĤçľģ":6325,"æłĳåı¶":6326,"éĢĲæŃ¥":6327,"åħ¨çĲĥæ°ĶåĢĻåıĺåĮĸ":6328,"çĶŁåĳ½çļĦ":6329,"ç¬Ķè®°":6330,"ĸæģ¯åľ°":6331,"åħĭæĸ¯":6332,"æľºåĻ¨åŃ¦ä¹łåĴĮ":6333,"åģļä»Ģä¹Ī":6334,"ä¿¡æģ¯åĴĮ":6335,"åĨĽäºĭ":6336,"äººå·¥æĻºèĥ½æĬĢæľ¯çļĦ":6337,"ç¿»è¯ĳæĪĲæĸĩè¨Ģæĸĩ":6338,"å¼¯":6339,"ç»ĦæĪĲçļĦ":6340,"èįīåİŁ":6341,"è¿ĩæ»¤":6342,"åħįè´¹":6343,"ä¸Ńåįİ":6344,"è®©æĤ¨":6345,"çļĦæĤ":6346,"ç®Ģæĺİ":6347,"æĺ¯ä»Ģä¹ĪæĦıæĢĿ":6348,"æľīå¤ļå°ĳ":6349,"æľīäºĨ":6350,"ä¸ĭåİ»":6351,"å¯¦":6352,"çĶŁäº§åĬĽ":6353,"éĨĭ":6354,"å¦ĤæŀľæĤ¨åĸľæ¬¢":6355,"ç»ĵæŀĦåĴĮ":6356,"å®ĿèĹı":6357,"èµ¢å¾ĹäºĨ":6358,"æĺ¯ä¸Ģä¸ªéĿŀå¸¸":6359,"æł¹æį®ä»¥ä¸Ĭ":6360,"...":6361,"è¯ŃæĢģ":6362,"æĪĳçĽ¸ä¿¡":6363,"è¿Ļä¸ªæĸĩæľ¬":6364,"ä¸ĸçķĮçļĦ":6365,"ä¸įåºĶè¯¥":6366,"åĳ½åĲį":6367,"éħįåĲĪ":6368,"åľ¨è¿Ļç§į":6369,"åı¥åŃĲä¸ŃçļĦ":6370,"èº«ä¸Ĭ":6371,"è¿Ļç¯ĩæĸĩç«łä¸»è¦ģ":6372,"åĲ¦å®ļ":6373,"æĿ¥è¿Ľè¡Į":6374,"å¥¹åľ¨":6375,"é«ĺæ¸©":6376,"èģĶçĽŁ":6377,"è¥¿çĵľ":6378,"ç¿»è¯ĳæĪĲçİ°ä»£æĸĩ":6379,"ä¹ĭæĥħ":6380,"çĮ´":6381,"æĲľç´¢å¼ķæĵİ":6382,"èīºæľ¯åĵģ":6383,"çĽ¸åĲĮçļĦ":6384,"æ»ĭ":6385,"è¶ĬæĿ¥è¶Ĭå¤ļçļĦ":6386,"çº¿ä¸Ĭ":6387,"è¡¨è¾¾æĸ¹å¼ı":6388,"çºªå¿µ":6389,"éĢĽ":6390,"æĽ´å¤§çļĦ":6391,"é¢ĳç¹ģ":6392,"çļĦæ³¨æĦı":6393,"è¿ŀè´¯":6394,"è¿½éĢĲ":6395,"åĩıè½»åİĭåĬĽ":6396,"ç»ĵå±Ģ":6397,"éħ·":6398,"å¤ĸæĺŁ":6399}